{
  "version": "1.0",
  "truncation": null,
  "padding": null,
  "added_tokens": [
    {
      "id": 0,
      "content": "<unk>",
      "single_word": false,
      "lstrip": false,
      "rstrip": false,
      "normalized": false,
      "special": true
    },
    {
      "id": 1,
      "content": "<pad>",
      "single_word": false,
      "lstrip": false,
      "rstrip": false,
      "normalized": false,
      "special": true
    },
    {
      "id": 2,
      "content": "<s>",
      "single_word": false,
      "lstrip": false,
      "rstrip": false,
      "normalized": false,
      "special": true
    },
    {
      "id": 3,
      "content": "</s>",
      "single_word": false,
      "lstrip": false,
      "rstrip": false,
      "normalized": false,
      "special": true
    },
    {
      "id": 4,
      "content": "<mask>",
      "single_word": false,
      "lstrip": false,
      "rstrip": false,
      "normalized": false,
      "special": true
    }
  ],
  "normalizer": {
    "type": "Sequence",
    "normalizers": [
      {
        "type": "NFKC"
      }
    ]
  },
  "pre_tokenizer": {
    "type": "Whitespace"
  },
  "post_processor": null,
  "decoder": null,
  "model": {
    "type": "BPE",
    "dropout": null,
    "unk_token": "<unk>",
    "continuing_subword_prefix": null,
    "end_of_word_suffix": null,
    "fuse_unk": false,
    "byte_fallback": false,
    "ignore_merges": false,
    "vocab": {
      "<unk>": 0,
      "<pad>": 1,
      "<s>": 2,
      "</s>": 3,
      "<mask>": 4,
      "!": 5,
      "(": 6,
      ")": 7,
      ",": 8,
      "?": 9,
      "`": 10,
      "{": 11,
      "|": 12,
      "}": 13,
      "ঁ": 14,
      "ং": 15,
      "ঃ": 16,
      "অ": 17,
      "আ": 18,
      "ই": 19,
      "ঈ": 20,
      "উ": 21,
      "ঊ": 22,
      "ঋ": 23,
      "ঌ": 24,
      "এ": 25,
      "ঐ": 26,
      "ও": 27,
      "ঔ": 28,
      "ক": 29,
      "খ": 30,
      "গ": 31,
      "ঘ": 32,
      "ঙ": 33,
      "চ": 34,
      "ছ": 35,
      "জ": 36,
      "ঝ": 37,
      "ঞ": 38,
      "ট": 39,
      "ঠ": 40,
      "ড": 41,
      "ঢ": 42,
      "ণ": 43,
      "ত": 44,
      "থ": 45,
      "দ": 46,
      "ধ": 47,
      "ন": 48,
      "঩": 49,
      "প": 50,
      "ফ": 51,
      "ব": 52,
      "ভ": 53,
      "ম": 54,
      "য": 55,
      "র": 56,
      "ল": 57,
      "঳": 58,
      "শ": 59,
      "ষ": 60,
      "স": 61,
      "হ": 62,
      "়": 63,
      "ঽ": 64,
      "া": 65,
      "ি": 66,
      "ী": 67,
      "ু": 68,
      "ূ": 69,
      "ৃ": 70,
      "ৄ": 71,
      "ে": 72,
      "ৈ": 73,
      "ো": 74,
      "ৌ": 75,
      "্": 76,
      "ৎ": 77,
      "ৗ": 78,
      "ৠ": 79,
      "ৡ": 80,
      "৤": 81,
      "৥": 82,
      "০": 83,
      "১": 84,
      "২": 85,
      "৩": 86,
      "৪": 87,
      "৫": 88,
      "৬": 89,
      "৭": 90,
      "৮": 91,
      "৯": 92,
      "ৰ": 93,
      "ৱ": 94,
      "৲": 95,
      "৳": 96,
      "৴": 97,
      "৵": 98,
      "৶": 99,
      "৷": 100,
      "৸": 101,
      "৹": 102,
      "৺": 103,
      "৻": 104,
      "য়": 105,
      "ার": 106,
      "ের": 107,
      "্র": 108,
      "্য": 109,
      "ান": 110,
      "কর": 111,
      "্ত": 112,
      "কে": 113,
      "লে": 114,
      "য়ে": 115,
      "বা": 116,
      "নি": 117,
      "না": 118,
      "তে": 119,
      "লা": 120,
      "ছে": 121,
      "বে": 122,
      "বি": 123,
      "তা": 124,
      "প্র": 125,
      "মা": 126,
      "কা": 127,
      "রা": 128,
      "র্": 129,
      "তি": 130,
      "ড়": 131,
      "দি": 132,
      "সে": 133,
      "দে": 134,
      "স্": 135,
      "সা": 136,
      "য়া": 137,
      "ন্": 138,
      "নে": 139,
      "টি": 140,
      "পর": 141,
      "কি": 142,
      "করে": 143,
      "টা": 144,
      "পা": 145,
      "মি": 146,
      "এক": 147,
      "হা": 148,
      "থা": 149,
      "দের": 150,
      "ক্": 151,
      "্যা": 152,
      "ছি": 153,
      "লো": 154,
      "তার": 155,
      "ভা": 156,
      "লি": 157,
      "কার": 158,
      "ক্ষ": 159,
      "ুর": 160,
      "সম": 161,
      "জন": 162,
      "যা": 163,
      "ন্ত": 164,
      "গে": 165,
      "যে": 166,
      "িত": 167,
      "রে": 168,
      "লেন": 169,
      "বার": 170,
      "থে": 171,
      "ষ্": 172,
      "দ্": 173,
      "তো": 174,
      "দা": 175,
      "ল্": 176,
      "কো": 177,
      "মু": 178,
      "মার": 179,
      "মান": 180,
      "মে": 181,
      "বল": 182,
      "স্ত": 183,
      "পার": 184,
      "হয়ে": 185,
      "জা": 186,
      "আর": 187,
      "ঙ্": 188,
      "সি": 189,
      "দু": 190,
      "বং": 191,
      "শি": 192,
      "এই": 193,
      "ক্ত": 194,
      "থেকে": 195,
      "হয়": 196,
      "চ্": 197,
      "এবং": 198,
      "ত্র": 199,
      "চা": 200,
      "খন": 201,
      "্ব": 202,
      "ওয়া": 203,
      "ছিল": 204,
      "িয়ে": 205,
      "খা": 206,
      "হি": 207,
      "খে": 208,
      "ীর": 209,
      "শা": 210,
      "নের": 211,
      "শে": 212,
      "তু": 213,
      "সু": 214,
      "০০": 215,
      "ছেন": 216,
      "বু": 217,
      "ব্য": 218,
      "অন": 219,
      "গু": 220,
      "িক": 221,
      "জে": 222,
      "করা": 223,
      "টে": 224,
      "য়ার": 225,
      "্যে": 226,
      "গা": 227,
      "গ্র": 228,
      "কোন": 229,
      "পে": 230,
      "সং": 231,
      "ির": 232,
      "ড়া": 233,
      "মন": 234,
      "ল্লা": 235,
      "ানে": 236,
      "আমি": 237,
      "তিনি": 238,
      "দ্ধ": 239,
      "ছু": 240,
      "পরি": 241,
      "জি": 242,
      "চে": 243,
      "এর": 244,
      "শু": 245,
      "সম্": 246,
      "ভি": 247,
      "লাম": 248,
      "হার": 249,
      "জান": 250,
      "বর": 251,
      "শ্": 252,
      "দেশ": 253,
      "বলে": 254,
      "কথা": 255,
      "স্থ": 256,
      "সব": 257,
      "হবে": 258,
      "লের": 259,
      "নার": 260,
      "আমার": 261,
      "প্রতি": 262,
      "জ্": 263,
      "ছা": 264,
      "ড়ে": 265,
      "মধ": 266,
      "কু": 267,
      "ীয়": 268,
      "ক্র": 269,
      "ল্লাহ": 270,
      "রি": 271,
      "জন্য": 272,
      "করতে": 273,
      "ন্দ": 274,
      "দিয়ে": 275,
      "োগ": 276,
      "ত্ত": 277,
      "ম্": 278,
      "পি": 279,
      "চি": 280,
      "সঙ্": 281,
      "ষ্ট": 282,
      "করি": 283,
      "কিন্ত": 284,
      "আমা": 285,
      "নিয়ে": 286,
      "অব": 287,
      "দী": 288,
      "পু": 289,
      "খু": 290,
      "কিছু": 291,
      "আপ": 292,
      "বী": 293,
      "্ড": 294,
      "আম": 295,
      "মনে": 296,
      "দিন": 297,
      "চার": 298,
      "যু": 299,
      "ন্ধ": 300,
      "হে": 301,
      "বো": 302,
      "মধ্যে": 303,
      "চ্ছে": 304,
      "ভাবে": 305,
      "তাদের": 306,
      "কের": 307,
      "কিন্তু": 308,
      "একটা": 309,
      "ায়": 310,
      "পারে": 311,
      "র্ণ": 312,
      "মো": 313,
      "সঙ্গে": 314,
      "হয়েছে": 315,
      "ঞ্": 316,
      "দেখ": 317,
      "য়ের": 318,
      "ত্য": 319,
      "ুষ": 320,
      "ড়ি": 321,
      "যায়": 322,
      "ব্যা": 323,
      "আছে": 324,
      "পুর": 325,
      "গো": 326,
      "একটি": 327,
      "ক্তি": 328,
      "সার": 329,
      "অনু": 330,
      "টার": 331,
      "নয়": 332,
      "কী": 333,
      "ছিলেন": 334,
      "হই": 335,
      "নির্": 336,
      "ান্ত": 337,
      "শেষ": 338,
      "নী": 339,
      "তাঁ": 340,
      "সর": 341,
      "উপ": 342,
      "সেই": 343,
      "জী": 344,
      "ধার": 345,
      "্ম": 346,
      "অর্": 347,
      "দিকে": 348,
      "করেন": 349,
      "ব্": 350,
      "জার": 351,
      "লার": 352,
      "মের": 353,
      "ডি": 354,
      "পূ": 355,
      "জ্ঞ": 356,
      "লী": 357,
      "রের": 358,
      "ানা": 359,
      "ষ্ঠ": 360,
      "শ্র": 361,
      "খানে": 362,
      "রু": 363,
      "রো": 364,
      "তের": 365,
      "যোগ": 366,
      "স্থা": 367,
      "আল্লাহ": 368,
      "হু": 369,
      "হলে": 370,
      "সহ": 371,
      "সূ": 372,
      "ফি": 373,
      "সময়": 374,
      "জের": 375,
      "গুলো": 376,
      "বলেন": 377,
      "তারা": 378,
      "বাস": 379,
      "কৃ": 380,
      "নেই": 381,
      "বাং": 382,
      "ওয়ার": 383,
      "লু": 384,
      "ফে": 385,
      "ধি": 386,
      "কোনো": 387,
      "প্রা": 388,
      "টু": 389,
      "উঠ": 390,
      "ঙ্গ": 391,
      "ভে": 392,
      "আমাদের": 393,
      "মানুষ": 394,
      "১০": 395,
      "বের": 396,
      "্যান": 397,
      "ভার": 398,
      "গত": 399,
      "বিষ": 400,
      "ধান": 401,
      "বাংলা": 402,
      "আস": 403,
      "তখন": 404,
      "ন্ত্র": 405,
      "ুরু": 406,
      "োর": 407,
      "এখন": 408,
      "সের": 409,
      "চিত": 410,
      "ক্ষে": 411,
      "ফা": 412,
      "ন্ন": 413,
      "ব্যব": 414,
      "স্ব": 415,
      "প্ত": 416,
      "অনে": 417,
      "এসে": 418,
      "বন": 419,
      "থাক": 420,
      "১৯": 421,
      "লোক": 422,
      "ণা": 423,
      "দার": 424,
      "দ্র": 425,
      "গিয়ে": 426,
      "আমরা": 427,
      "কাছে": 428,
      "মত": 429,
      "যদি": 430,
      "ণে": 431,
      "ক্ষা": 432,
      "কাল": 433,
      "করার": 434,
      "এমন": 435,
      "তাকে": 436,
      "ইস": 437,
      "শ্ব": 438,
      "শী": 439,
      "প্রথ": 440,
      "গণ": 441,
      "ধা": 442,
      "বৃ": 443,
      "কল": 444,
      "তবে": 445,
      "ানের": 446,
      "সম্প": 447,
      "ানি": 448,
      "বেন": 449,
      "কম": 450,
      "নাম": 451,
      "থাকে": 452,
      "ীন": 453,
      "ল্প": 454,
      "পড়": 455,
      "অভি": 456,
      "বাদ": 457,
      "অনেক": 458,
      "ান্": 459,
      "আন": 460,
      "মুখ": 461,
      "কাজ": 462,
      "বাই": 463,
      "হতে": 464,
      "ধু": 465,
      "ষ্টি": 466,
      "রাজ": 467,
      "গেল": 468,
      "্রা": 469,
      "মূ": 470,
      "পরে": 471,
      "র্ব": 472,
      "বড়": 473,
      "ডা": 474,
      "পড়ে": 475,
      "তুমি": 476,
      "তাই": 477,
      "৮০": 478,
      "বছ": 479,
      "সাথে": 480,
      "স্ট": 481,
      "হো": 482,
      "তীয়": 483,
      "গ্রহ": 484,
      "দর": 485,
      "কর্ম": 486,
      "চো": 487,
      "তী": 488,
      "দেখা": 489,
      "ভাব": 490,
      "মী": 491,
      "বন্ধ": 492,
      "ভূ": 493,
      "প্": 494,
      "ঠা": 495,
      "বর্ত": 496,
      "আই": 497,
      "হত": 498,
      "ুল": 499,
      "অন্য": 500,
      "বেশ": 501,
      "শো": 502,
      "সো": 503,
      "ডে": 504,
      "লাই": 505,
      "্থ": 506,
      "হচ্ছে": 507,
      "গ্রা": 508,
      "বলল": 509,
      "হল": 510,
      "ধ্য": 511,
      "স্বা": 512,
      "কেন": 513,
      "১১": 514,
      "আগে": 515,
      "প্রথম": 516,
      "ণ্ড": 517,
      "আজ": 518,
      "বাংলাদেশ": 519,
      "কাশ": 520,
      "চল": 521,
      "ারা": 522,
      "পো": 523,
      "তির": 524,
      "যেন": 525,
      "ঠিক": 526,
      "জু": 527,
      "ংশ": 528,
      "তোমার": 529,
      "টির": 530,
      "মতো": 531,
      "ঘট": 532,
      "দায়": 533,
      "য়েছে": 534,
      "২০": 535,
      "উদ্": 536,
      "দেখে": 537,
      "পর্য": 538,
      "যখন": 539,
      "চলে": 540,
      "মৃ": 541,
      "রণ": 542,
      "আলো": 543,
      "সী": 544,
      "টের": 545,
      "হাস": 546,
      "গের": 547,
      "তাঁর": 548,
      "উত্ত": 549,
      "গেছে": 550,
      "বর্ণ": 551,
      "টো": 552,
      "),": 553,
      "ানো": 554,
      "নিয়": 555,
      "রত": 556,
      "বুঝ": 557,
      "করেছেন": 558,
      "আল": 559,
      "পৃ": 560,
      "বললেন": 561,
      "এটা": 562,
      "একজন": 563,
      "ড়িয়ে": 564,
      "লায়": 565,
      "চু": 566,
      "হলো": 567,
      "রী": 568,
      "শুরু": 569,
      "শন": 570,
      "কেউ": 571,
      "খুব": 572,
      "তিন": 573,
      "কারী": 574,
      "তোমা": 575,
      "ঘা": 576,
      "ধর": 577,
      "আবার": 578,
      "নিক": 579,
      "ব্র": 580,
      "সমা": 581,
      "মুস": 582,
      "ত্": 583,
      "অর্থ": 584,
      "য়ো": 585,
      "ইসলাম": 586,
      "উপর": 587,
      "স্য": 588,
      "ত্ব": 589,
      "ূপ": 590,
      "বিদ": 591,
      "ছাড়া": 592,
      "ছো": 593,
      "খান": 594,
      "আপনার": 595,
      "বলি": 596,
      "হী": 597,
      "দান": 598,
      "দিতে": 599,
      "মূল": 600,
      "তিক": 601,
      "চাই": 602,
      "দৃ": 603,
      "লাগ": 604,
      "পূর্ণ": 605,
      "দুই": 606,
      "সরকার": 607,
      "নায়": 608,
      "চেয়ে": 609,
      "ত্রে": 610,
      "হাত": 611,
      "বিশ্ব": 612,
      "মাত্র": 613,
      "আমাকে": 614,
      "ক্ষণ": 615,
      "বেশি": 616,
      "ধারণ": 617,
      "িয়া": 618,
      "এত": 619,
      "কায়": 620,
      "ওই": 621,
      "ন্দ্র": 622,
      "১৮": 623,
      "করেছে": 624,
      "ভালো": 625,
      "নিজে": 626,
      "সম্পর্": 627,
      "পের": 628,
      "কারণ": 629,
      "ভব": 630,
      "ইউ": 631,
      "আপনি": 632,
      "বাড়ি": 633,
      "কর্ত": 634,
      "ম্ব": 635,
      "ধরে": 636,
      "গ্": 637,
      "তেই": 638,
      "রয়েছে": 639,
      "ওর": 640,
      "দূ": 641,
      "আব": 642,
      "নিজের": 643,
      "দল": 644,
      "কুর": 645,
      "ব্যক্তি": 646,
      "রাখ": 647,
      "দেওয়া": 648,
      "মর": 649,
      "দো": 650,
      "ওপর": 651,
      "তৃ": 652,
      "যাবে": 653,
      "বলা": 654,
      "১৪": 655,
      "করিয়া": 656,
      "জানা": 657,
      "স্ত্র": 658,
      "হাতে": 659,
      "খ্যা": 660,
      "মাণ": 661,
      "মন্ত্র": 662,
      "্ট": 663,
      "ইয়া": 664,
      "ত্যা": 665,
      "৬০": 666,
      "দর্": 667,
      "পতি": 668,
      "শ্য": 669,
      "করবে": 670,
      "শুধু": 671,
      "কত": 672,
      "স্থান": 673,
      "নো": 674,
      "একটু": 675,
      "ভু": 676,
      "বছর": 677,
      "র্ত": 678,
      "পথ": 679,
      "টাকা": 680,
      "্যাল": 681,
      "সত্য": 682,
      "গ্রহণ": 683,
      "ঢা": 684,
      "ষ্টা": 685,
      "ধর্": 686,
      "বৈ": 687,
      "বিষয়": 688,
      "হন": 689,
      "বিশ্": 690,
      "ঠে": 691,
      "আহ": 692,
      "এখানে": 693,
      "ন্ট": 694,
      "খো": 695,
      "পর্যন্ত": 696,
      "ভিন্ন": 697,
      "লিশ": 698,
      "প্রধান": 699,
      "থি": 700,
      "দেশে": 701,
      "ফু": 702,
      "৮৮": 703,
      "তারপর": 704,
      "হিসে": 705,
      "কয়ে": 706,
      "প্রকাশ": 707,
      "র্থ": 708,
      "রহ": 709,
      "বান": 710,
      "তর": 711,
      "মাথা": 712,
      "অথ": 713,
      "মাম": 714,
      "বনে": 715,
      "জো": 716,
      "১৩": 717,
      "বসে": 718,
      "১৫": 719,
      "অধি": 720,
      "অধ": 721,
      "বলতে": 722,
      "প্রে": 723,
      "যুদ্ধ": 724,
      "লেখ": 725,
      "বিশেষ": 726,
      "তাহলে": 727,
      "কখন": 728,
      "গর": 729,
      "লন": 730,
      "মাঝ": 731,
      "যো": 732,
      "হিসেবে": 733,
      "হারা": 734,
      "তুন": 735,
      "অপ": 736,
      "চনা": 737,
      "উঠে": 738,
      "্যের": 739,
      "মেয়ে": 740,
      "উৎ": 741,
      "শব্": 742,
      "িতে": 743,
      "নিশ্": 744,
      "্যায়": 745,
      "দন": 746,
      "নির্বা": 747,
      "নাই": 748,
      "বাঁ": 749,
      "কয়েক": 750,
      "আরও": 751,
      "প্রায়": 752,
      "সৃ": 753,
      "ঘো": 754,
      "ভাগ": 755,
      "হাজার": 756,
      "পাঠ": 757,
      "পন": 758,
      "জায়": 759,
      "মরা": 760,
      "ীদের": 761,
      "ষণ": 762,
      "চোখ": 763,
      "আত": 764,
      "গুলি": 765,
      "দুর্": 766,
      "ভয়": 767,
      "সদ": 768,
      "কারণে": 769,
      "৩০": 770,
      "যুক্ত": 771,
      "চাল": 772,
      "মানুষের": 773,
      "ভাল": 774,
      "স্তা": 775,
      "নতুন": 776,
      "পৌ": 777,
      "রাসূ": 778,
      "হইয়া": 779,
      "চর": 780,
      "জীবন": 781,
      "পদ": 782,
      "্রে": 783,
      "কোথা": 784,
      "অন্ত": 785,
      "জন্যে": 786,
      "মাধ্য": 787,
      "বর্": 788,
      "হয": 789,
      "ফের": 790,
      "এস": 791,
      "অবস্থা": 792,
      "পাঁ": 793,
      "ময়": 794,
      "মহা": 795,
      "ফো": 796,
      "১২": 797,
      "করছে": 798,
      "দিক": 799,
      "মিক": 800,
      "ইন": 801,
      "ার্থ": 802,
      "ইল": 803,
      "যেতে": 804,
      "ঝা": 805,
      "বস": 806,
      "সামনে": 807,
      "ছেলে": 808,
      "মদ": 809,
      "হিত": 810,
      "ষে": 811,
      "ফল": 812,
      "লক্ষ": 813,
      "হর": 814,
      "এম": 815,
      "বাড়": 816,
      "আবু": 817,
      "রাষ্ট": 818,
      "দেয়": 819,
      "রেখে": 820,
      "দেখতে": 821,
      "সাধারণ": 822,
      "জ্ঞান": 823,
      "ভাষ": 824,
      "সেখানে": 825,
      "দেশের": 826,
      "হের": 827,
      "লিম": 828,
      "ছিলাম": 829,
      "সন": 830,
      "আল্লাহর": 831,
      "তাহা": 832,
      "হ্": 833,
      "পারি": 834,
      "সভা": 835,
      "পুলিশ": 836,
      "কালে": 837,
      "গার": 838,
      "৪০": 839,
      "দেন": 840,
      "পায়": 841,
      "চয়": 842,
      "ণ্": 843,
      "পান": 844,
      "ণী": 845,
      "ধে": 846,
      "শর": 847,
      "১৬": 848,
      "ধন": 849,
      "প্রশ্": 850,
      "সেটা": 851,
      "দ্বি": 852,
      "করল": 853,
      "দ্য": 854,
      "প্রতিষ্ঠ": 855,
      "বিভিন্ন": 856,
      "বাহি": 857,
      "এন": 858,
      "ুন": 859,
      "য়ান": 860,
      "উল্": 861,
      "তৈ": 862,
      "আলা": 863,
      "যার": 864,
      "()": 865,
      "বিশ্বাস": 866,
      "হাদী": 867,
      "পাওয়া": 868,
      "য়োজন": 869,
      "চেষ্টা": 870,
      "শিক্ষ": 871,
      "পক্ষ": 872,
      "ঠি": 873,
      "তুল": 874,
      "তাহার": 875,
      "হওয়া": 876,
      "মার্": 877,
      "কৃত": 878,
      "সর্ব": 879,
      "ক্রি": 880,
      "অংশ": 881,
      "ছোট": 882,
      "বির": 883,
      "ভিত": 884,
      "রাষ্ট্র": 885,
      "সালে": 886,
      "দেব": 887,
      "বাব": 888,
      "তুলে": 889,
      "তোমাদের": 890,
      "অতি": 891,
      "যেমন": 892,
      "ধী": 893,
      "উন্": 894,
      "দ্বার": 895,
      "ব্যবস্থা": 896,
      "ভাই": 897,
      "হযরত": 898,
      "সাহা": 899,
      "আসে": 900,
      "তন": 901,
      "জয়": 902,
      "প্রি": 903,
      "ভো": 904,
      "হইতে": 905,
      "লেই": 906,
      "তায়": 907,
      "যান": 908,
      "সম্পর্কে": 909,
      "ঘটনা": 910,
      "ফিরে": 911,
      "০৮": 912,
      "সাল্লা": 913,
      "একা": 914,
      "একে": 915,
      "এসব": 916,
      "দশ": 917,
      "১৭": 918,
      "এবার": 919,
      "ঞ্চ": 920,
      "কমি": 921,
      "পেয়ে": 922,
      "সকল": 923,
      "হওয়ার": 924,
      "অর্থা": 925,
      "সন্ত": 926,
      "সাম": 927,
      "হান": 928,
      "সম্ভব": 929,
      "ব্যবহার": 930,
      "ক্ষম": 931,
      "ইতি": 932,
      "সক": 933,
      "মুখে": 934,
      "লাভ": 935,
      "অত": 936,
      "মৃত্য": 937,
      "বীর": 938,
      "এলা": 939,
      "বয়": 940,
      "ঘু": 941,
      "জ্ঞা": 942,
      "দাঁ": 943,
      "এল": 944,
      "লিক": 945,
      "স্প": 946,
      "পক্ষে": 947,
      "ক্রম": 948,
      "ণের": 949,
      "জল": 950,
      "জন্": 951,
      "্রি": 952,
      "০০০": 953,
      "বোধ": 954,
      "মানে": 955,
      "হাসি": 956,
      "চ্ছা": 957,
      "মাধ্যমে": 958,
      "কিয়ে": 959,
      "ম্যা": 960,
      "পত্র": 961,
      "উত্তর": 962,
      "বিক": 963,
      "ক্ষেত্রে": 964,
      "ফির": 965,
      "রাম": 966,
      "চিন্ত": 967,
      "গঠ": 968,
      "অর্থাৎ": 969,
      "শের": 970,
      "ুত": 971,
      "লিয়ে": 972,
      "রায়": 973,
      "তোমরা": 974,
      "্যার": 975,
      "হয়েছিল": 976,
      "শব্দ": 977,
      "সৃষ্টি": 978,
      "লেও": 979,
      "দিল": 980,
      "রুদ্ধ": 981,
      "৪৪": 982,
      "লাল": 983,
      "গান": 984,
      "মাল": 985,
      "গুরু": 986,
      "পানি": 987,
      "ব্যাপারে": 988,
      "বলেছেন": 989,
      "অবশ্য": 990,
      "খি": 991,
      "সায়": 992,
      "জীব": 993,
      "শুন": 994,
      "সবাই": 995,
      "করলেন": 996,
      "গী": 997,
      "মুসলিম": 998,
      "কর্": 999,
      "যারা": 1000,
      "কিং": 1001,
      "করিতে": 1002,
      "ঘরে": 1003,
      "পরী": 1004,
      "বই": 1005,
      "দেয়া": 1006,
      "নামে": 1007,
      "ম্বর": 1008,
      "দ্বারা": 1009,
      "বিষয়ে": 1010,
      "নিকট": 1011,
      "হাম্": 1012,
      "নির্বাচ": 1013,
      "সন্ধ": 1014,
      "চ্ছ": 1015,
      "বাবা": 1016,
      "মাঝে": 1017,
      "দক": 1018,
      "সন্": 1019,
      "রূপ": 1020,
      "জানে": 1021,
      "ক্যা": 1022,
      "শক্তি": 1023,
      "ন্দর": 1024,
      "যাচ্ছে": 1025,
      "স্তি": 1026,
      "যত": 1027,
      "ধর্ম": 1028,
      "ধরনের": 1029,
      "ক্ষি": 1030,
      "যি": 1031,
      "নিতে": 1032,
      "শিক্ষা": 1033,
      "বাজার": 1034,
      "ঞ্জ": 1035,
      "একই": 1036,
      "বিদ্যাল": 1037,
      "৫০": 1038,
      "টাই": 1039,
      "ন্ড": 1040,
      "বিরুদ্ধ": 1041,
      "শুনে": 1042,
      "বারে": 1043,
      "শার": 1044,
      "ফলে": 1045,
      "মন্ত্রী": 1046,
      "স্থিত": 1047,
      "উল্লেখ": 1048,
      "্যান্ড": 1049,
      "সেন": 1050,
      "ওরা": 1051,
      "ভী": 1052,
      "দ্ধি": 1053,
      "লিত": 1054,
      "পাশে": 1055,
      "কোনও": 1056,
      "নির": 1057,
      "জায়গা": 1058,
      "বিচার": 1059,
      "আট": 1060,
      "পূর্ব": 1061,
      "গি": 1062,
      "িত্ব": 1063,
      "বায়": 1064,
      "চ্ছি": 1065,
      "আপনা": 1066,
      "সাই": 1067,
      "জাতীয়": 1068,
      "খবর": 1069,
      "বর্ণনা": 1070,
      "অনুষ্ঠ": 1071,
      "প্রশ্ন": 1072,
      "প্রয়োজন": 1073,
      "লমান": 1074,
      "বাবু": 1075,
      "সর্": 1076,
      "তম": 1077,
      "কান": 1078,
      "নিজ": 1079,
      "ফেলে": 1080,
      "শ্রে": 1081,
      "আরো": 1082,
      "য়াত": 1083,
      "ৈতিক": 1084,
      "নামা": 1085,
      "নবী": 1086,
      "পাল": 1087,
      "ঢাকা": 1088,
      "জনের": 1089,
      "ব্যাপার": 1090,
      "বিন": 1091,
      "বিরুদ্ধে": 1092,
      "বিত": 1093,
      "হ্যা": 1094,
      "কাজে": 1095,
      "এটি": 1096,
      "কন": 1097,
      "কেই": 1098,
      "করলে": 1099,
      "এতে": 1100,
      "কাঁ": 1101,
      "ইবনে": 1102,
      "পুরুষ": 1103,
      "৯০": 1104,
      "পথে": 1105,
      "০০০০": 1106,
      "জেলা": 1107,
      "জর": 1108,
      "মাস": 1109,
      "শান্ত": 1110,
      "থাকবে": 1111,
      "লুল্লাহ": 1112,
      "গ্রাম": 1113,
      "ফার": 1114,
      "ধীন": 1115,
      "দুর": 1116,
      "রাত": 1117,
      "তৈরি": 1118,
      "আইন": 1119,
      "রাজন": 1120,
      "শত": 1121,
      "মধ্য": 1122,
      "বহু": 1123,
      "ক্তির": 1124,
      "ইং": 1125,
      "দুল": 1126,
      "হঠা": 1127,
      "আত্ম": 1128,
      "ঘর": 1129,
      "সমস্ত": 1130,
      "একবার": 1131,
      "বন্ধু": 1132,
      "ণি": 1133,
      "স্বী": 1134,
      "দ্বিতীয়": 1135,
      "সময়ে": 1136,
      "হয়নি": 1137,
      "ফর": 1138,
      "করো": 1139,
      "দেহ": 1140,
      "ভূমি": 1141,
      "পার্": 1142,
      "শতা": 1143,
      "দিনের": 1144,
      "পাতা": 1145,
      "চ্চ": 1146,
      "দর্শ": 1147,
      "ছাত্র": 1148,
      "পৃথি": 1149,
      "অথবা": 1150,
      "ষণা": 1151,
      "সাং": 1152,
      "ব্যাং": 1153,
      "গ্রে": 1154,
      "হঠাৎ": 1155,
      "ছবি": 1156,
      "ফেল": 1157,
      "হত্যা": 1158,
      "সিদ্ধ": 1159,
      "দুটি": 1160,
      "ন্য": 1161,
      "থাকা": 1162,
      "তত": 1163,
      "বাক": 1164,
      "ত্তি": 1165,
      "পণ": 1166,
      "জানি": 1167,
      "তাম": 1168,
      "তাতে": 1169,
      "আওয়া": 1170,
      "পারেন": 1171,
      "কেন্দ্র": 1172,
      "ন্দু": 1173,
      "মুসলমান": 1174,
      "ন্থ": 1175,
      "দলের": 1176,
      "হীন": 1177,
      "কবি": 1178,
      "যাই": 1179,
      "জ্য": 1180,
      "দৃষ্টি": 1181,
      "তথ": 1182,
      "গুলোর": 1183,
      "থাকতে": 1184,
      "বর্তী": 1185,
      "রহমান": 1186,
      "সদস্য": 1187,
      "ীরা": 1188,
      "চিত্র": 1189,
      "পূর্": 1190,
      "মহি": 1191,
      "যোগ্য": 1192,
      "আরে": 1193,
      "কোথায়": 1194,
      "আসা": 1195,
      "গতকাল": 1196,
      "সমূ": 1197,
      "রকম": 1198,
      "লিয়া": 1199,
      "ঢু": 1200,
      "জানান": 1201,
      "সংখ্যা": 1202,
      "বুঝতে": 1203,
      "ুরে": 1204,
      "জিনি": 1205,
      "চোখে": 1206,
      "পক": 1207,
      "থার": 1208,
      "সাবে": 1209,
      "কিস্ত": 1210,
      "বাহ": 1211,
      "বাংলাদেশের": 1212,
      "রাখা": 1213,
      "লেখা": 1214,
      "নীর": 1215,
      "র্ঘ": 1216,
      "সালের": 1217,
      "যাওয়া": 1218,
      "পাই": 1219,
      "ওদের": 1220,
      "ভ্র": 1221,
      "কলে": 1222,
      "সৈ": 1223,
      "উদ্দেশ": 1224,
      "মারা": 1225,
      "এসেছে": 1226,
      "ছিলো": 1227,
      "ছেড়ে": 1228,
      "জিত": 1229,
      "জানতে": 1230,
      "এরপর": 1231,
      "কর্তা": 1232,
      "নীতি": 1233,
      "পুরো": 1234,
      "শেষে": 1235,
      "কৌ": 1236,
      "লত": 1237,
      "ভর": 1238,
      "পাঁচ": 1239,
      "বাইরে": 1240,
      "কখনো": 1241,
      "স্যা": 1242,
      "রাতে": 1243,
      "স্টে": 1244,
      "আলাই": 1245,
      "মৃত্যু": 1246,
      "বর্ণিত": 1247,
      "কার্য": 1248,
      "হাদীস": 1249,
      "হায়": 1250,
      "ইন্": 1251,
      "কুল": 1252,
      "তোমাকে": 1253,
      "সাহায": 1254,
      "ুরি": 1255,
      "২২": 1256,
      "প্রমাণ": 1257,
      "বক্ত": 1258,
      "এগিয়ে": 1259,
      "করবেন": 1260,
      "সারা": 1261,
      "ক্ষু": 1262,
      "কেবল": 1263,
      "প্রাণ": 1264,
      "ইবন": 1265,
      "গাড়ি": 1266,
      "সুযোগ": 1267,
      "স্ত্রী": 1268,
      "মনো": 1269,
      "কৃতি": 1270,
      "শিল্প": 1271,
      "বরং": 1272,
      "০৪": 1273,
      "সাহে": 1274,
      "নির্দেশ": 1275,
      "হৃ": 1276,
      "কিছুই": 1277,
      "কারে": 1278,
      "চৌ": 1279,
      "নিয়া": 1280,
      "গাছ": 1281,
      "পরিচাল": 1282,
      "্স": 1283,
      "লোকের": 1284,
      "ল্লাহু": 1285,
      "কেট": 1286,
      "টিতে": 1287,
      "খুঁ": 1288,
      "ানার": 1289,
      "চিন্তা": 1290,
      "সংস্": 1291,
      "মুহ": 1292,
      "৩৩": 1293,
      "দাবি": 1294,
      "জানিয়ে": 1295,
      "চায়": 1296,
      "নারী": 1297,
      "ইমাম": 1298,
      "উঠল": 1299,
      "রূ": 1300,
      "হোক": 1301,
      "দূর": 1302,
      "বস্ত": 1303,
      "হয়তো": 1304,
      "খার": 1305,
      "পুন": 1306,
      "বিরো": 1307,
      "ঘটে": 1308,
      "পরিবর্ত": 1309,
      "আদা": 1310,
      "ম্যান": 1311,
      "বরা": 1312,
      "বারের": 1313,
      "ষি": 1314,
      "নিরা": 1315,
      "ঙ্গা": 1316,
      "ানোর": 1317,
      "স্থি": 1318,
      "সম্পা": 1319,
      "গৃ": 1320,
      "সিং": 1321,
      "তাঁদের": 1322,
      "প্রতিবে": 1323,
      "উই": 1324,
      "দিয়েছে": 1325,
      "মুক্তি": 1326,
      "নাথ": 1327,
      "পাকিস্ত": 1328,
      "দেখি": 1329,
      "সংবাদ": 1330,
      "আলাইহি": 1331,
      "শীল": 1332,
      "শ্রী": 1333,
      "৬৪": 1334,
      "কিংবা": 1335,
      "জমি": 1336,
      "রাসূলুল্লাহ": 1337,
      "চট": 1338,
      "আলী": 1339,
      "দিয়েছেন": 1340,
      "২৫": 1341,
      "৩৪": 1342,
      "ঙা": 1343,
      "তথ্য": 1344,
      "মস": 1345,
      "বাস্ত": 1346,
      "বছরের": 1347,
      "নিশ্চয়": 1348,
      "পড়া": 1349,
      "ষা": 1350,
      "নাকি": 1351,
      "অবস্থায়": 1352,
      "বদ": 1353,
      "অ্যা": 1354,
      "বাল": 1355,
      "কোটি": 1356,
      "জন্ম": 1357,
      "যাত্র": 1358,
      "১০০": 1359,
      "সাত": 1360,
      "থেকেই": 1361,
      "গেলে": 1362,
      "আশা": 1363,
      "ন্দো": 1364,
      "হাম": 1365,
      "রাই": 1366,
      "জগ": 1367,
      "নু": 1368,
      "আঁ": 1369,
      "শহ": 1370,
      "ক্স": 1371,
      "অভিযোগ": 1372,
      "বিশ্ববিদ্যাল": 1373,
      "সত্যি": 1374,
      "সৌ": 1375,
      "মানব": 1376,
      "প্রার্থ": 1377,
      "স্টার": 1378,
      "মিত": 1379,
      "স্বাধীন": 1380,
      "টর": 1381,
      "আগ": 1382,
      "২০০": 1383,
      "আলোচনা": 1384,
      "টাকে": 1385,
      "দীর্ঘ": 1386,
      "প্রাপ্ত": 1387,
      "পারবে": 1388,
      "২৪": 1389,
      "টায়": 1390,
      "অফি": 1391,
      "করেছিলেন": 1392,
      "লিখ": 1393,
      "ত্যে": 1394,
      "বেরিয়ে": 1395,
      "মাই": 1396,
      "কাছ": 1397,
      "দুঃ": 1398,
      "অন্ধ": 1399,
      "নানা": 1400,
      "নেতা": 1401,
      "বাড়িতে": 1402,
      "কেটে": 1403,
      "কেমন": 1404,
      "ব্রা": 1405,
      "দিলেন": 1406,
      "ন্দা": 1407,
      "বিএন": 1408,
      "উদ": 1409,
      "ভুল": 1410,
      "কল্প": 1411,
      "করণ": 1412,
      "অন্যান": 1413,
      "পশ্": 1414,
      "মনি": 1415,
      "তেন": 1416,
      "ভীর": 1417,
      "ট্র": 1418,
      "টিকে": 1419,
      "অথচ": 1420,
      "খেলা": 1421,
      "চেয়ার": 1422,
      "পী": 1423,
      "লাখ": 1424,
      "দর্শন": 1425,
      "বললে": 1426,
      "শিশু": 1427,
      "হাম্মদ": 1428,
      "আন্ত": 1429,
      "আয়": 1430,
      "তরা": 1431,
      "অপর": 1432,
      "করেছি": 1433,
      "উচিত": 1434,
      "চের": 1435,
      "মতে": 1436,
      "যাব": 1437,
      "সভাপতি": 1438,
      "উপস্থিত": 1439,
      "তাঁকে": 1440,
      "ভিত্ত": 1441,
      "নিজেদের": 1442,
      "যাওয়ার": 1443,
      "বিধান": 1444,
      "অপরা": 1445,
      "মাদ": 1446,
      "রিয়া": 1447,
      "কাম": 1448,
      "আসি": 1449,
      "কর্তৃ": 1450,
      "রানা": 1451,
      "দুটো": 1452,
      "চ্ছেন": 1453,
      "বিল": 1454,
      "বিয়ে": 1455,
      "কারা": 1456,
      "কেল": 1457,
      "ওকে": 1458,
      "বার্": 1459,
      "তবু": 1460,
      "জাতি": 1461,
      "সবচেয়ে": 1462,
      "নর": 1463,
      "ওয়ে": 1464,
      "৮৪": 1465,
      "মহান": 1466,
      "অন্যান্য": 1467,
      "মুক্ত": 1468,
      "আশ": 1469,
      "হক": 1470,
      "প্রিয়": 1471,
      "ট্রা": 1472,
      "দিয়া": 1473,
      "খানা": 1474,
      "ঘোষণা": 1475,
      "উপা": 1476,
      "দরকার": 1477,
      "ধারণা": 1478,
      "ত্তা": 1479,
      "লাগল": 1480,
      "স্বীকার": 1481,
      "ছনে": 1482,
      "পেক্ষা": 1483,
      "দক্ষি": 1484,
      "রক্ত": 1485,
      "ত্রি": 1486,
      "দায়িত্ব": 1487,
      "উদ্ধ": 1488,
      "ন্দি": 1489,
      "গণের": 1490,
      "মিথ": 1491,
      "আব্": 1492,
      "৬৬": 1493,
      "সিদ্ধান্ত": 1494,
      "প্রচ": 1495,
      "আরেক": 1496,
      "হাঁ": 1497,
      "যেখানে": 1498,
      "ভ্য": 1499,
      "কিন": 1500,
      "র্ক": 1501,
      "লক্ষ্য": 1502,
      "জ্জা": 1503,
      "শাল": 1504,
      "গল্প": 1505,
      "ফোন": 1506,
      "ক্ষমতা": 1507,
      "স্পষ্ট": 1508,
      "শাহ": 1509,
      "জেলার": 1510,
      "৯৯": 1511,
      "খুন": 1512,
      "কারের": 1513,
      "সাব": 1514,
      "ড়ার": 1515,
      "জির": 1516,
      "ওঠে": 1517,
      "তিতে": 1518,
      "হাই": 1519,
      "প্রতিনি": 1520,
      "বেলা": 1521,
      "বাদী": 1522,
      "পির": 1523,
      "জীবনের": 1524,
      "তাঁরা": 1525,
      "তাকিয়ে": 1526,
      "৩৫": 1527,
      "কর্মকর্তা": 1528,
      "মৌ": 1529,
      "ভারত": 1530,
      "গল": 1531,
      "ুরী": 1532,
      "বান্": 1533,
      "মালিক": 1534,
      "হোসেন": 1535,
      "টুকু": 1536,
      "প্রত্যে": 1537,
      "স্থানে": 1538,
      "মাহ": 1539,
      "পুত্র": 1540,
      "রাজা": 1541,
      "যাতে": 1542,
      "র্জা": 1543,
      "ডার": 1544,
      "ধ্": 1545,
      "তাও": 1546,
      "স্ক": 1547,
      "তীর": 1548,
      "শেখ": 1549,
      "শিষ্ট": 1550,
      "চিকি": 1551,
      "সিক": 1552,
      "সমান": 1553,
      "য়ন": 1554,
      "চ্ছিল": 1555,
      "সাহ": 1556,
      "খুলে": 1557,
      "প্রবেশ": 1558,
      "সুবি": 1559,
      "মকে": 1560,
      "সুন্দর": 1561,
      "সরকারি": 1562,
      "করছেন": 1563,
      "মিন": 1564,
      "শরীর": 1565,
      "ঙ্গল": 1566,
      "দেবে": 1567,
      "পালন": 1568,
      "দৌ": 1569,
      "মিল": 1570,
      "মতি": 1571,
      "জিনিস": 1572,
      "হলেও": 1573,
      "খারা": 1574,
      "সাহায্য": 1575,
      "করুন": 1576,
      "একেবারে": 1577,
      "পর্যা": 1578,
      "সুর": 1579,
      "শরী": 1580,
      "গ্রামের": 1581,
      "তাদেরকে": 1582,
      "সম্ব": 1583,
      "ল্যা": 1584,
      "গোল": 1585,
      "আপনাকে": 1586,
      "এব": 1587,
      "পর্": 1588,
      "আওয়ামী": 1589,
      "০৯": 1590,
      "ইচ্ছা": 1591,
      "ঝু": 1592,
      "কাউ": 1593,
      "করেছিল": 1594,
      "))": 1595,
      "তরাং": 1596,
      "জ্ঞে": 1597,
      "পূর্বে": 1598,
      "স্তার": 1599,
      "নেওয়া": 1600,
      "রান": 1601,
      "উচ্চ": 1602,
      "করতেন": 1603,
      "এভাবে": 1604,
      "টন": 1605,
      "ড়াই": 1606,
      "দাও": 1607,
      "আফ": 1608,
      "উনি": 1609,
      "চিকিৎ": 1610,
      "২৩": 1611,
      "সমর্থ": 1612,
      "দেওয়ার": 1613,
      "সরকারের": 1614,
      "নেমে": 1615,
      "মিনি": 1616,
      "প্রস্ত": 1617,
      "পাত": 1618,
      "সার্": 1619,
      "করব": 1620,
      "ধের": 1621,
      "আন্দো": 1622,
      "ক্ষতি": 1623,
      "ভূত": 1624,
      "নিশ্চিত": 1625,
      "মাথায়": 1626,
      "ড়ায়": 1627,
      "কুরআন": 1628,
      "সাহিত": 1629,
      "আয়াত": 1630,
      "আছেন": 1631,
      "আগু": 1632,
      "ংস": 1633,
      "কষ্ট": 1634,
      "গুরুত্ব": 1635,
      "ূর্ত": 1636,
      "চির": 1637,
      "টিয়ে": 1638,
      "যন্ত্র": 1639,
      "শয়": 1640,
      "ঘরের": 1641,
      "ফুল": 1642,
      "প্রচার": 1643,
      "বণ": 1644,
      "সালা": 1645,
      "বোঝা": 1646,
      "আবে": 1647,
      "রক্ষা": 1648,
      "রাসূল": 1649,
      "দাস": 1650,
      "ধারা": 1651,
      "সূরা": 1652,
      "মনের": 1653,
      "সাল্লাল্লাহু": 1654,
      "দীর": 1655,
      "সমু": 1656,
      "পড়ল": 1657,
      "য়াল": 1658,
      "২৭": 1659,
      "অত্য": 1660,
      "একদিন": 1661,
      "কালো": 1662,
      "ম্প": 1663,
      "লিখে": 1664,
      "ভাষা": 1665,
      "ন্যা": 1666,
      "ক্লা": 1667,
      "আসছে": 1668,
      "গামী": 1669,
      "গঠন": 1670,
      "ভারতের": 1671,
      "ভেবে": 1672,
      "বাহিনী": 1673,
      "২৮": 1674,
      "মল": 1675,
      "জনে": 1676,
      "ৎকার": 1677,
      "সত": 1678,
      "সেনা": 1679,
      "সান": 1680,
      "যায়ী": 1681,
      "যৌ": 1682,
      "নয়ন": 1683,
      "কেননা": 1684,
      "্যু": 1685,
      "্তা": 1686,
      "বিভা": 1687,
      "বদ্ধ": 1688,
      "ফুট": 1689,
      "সন্তান": 1690,
      "শাসন": 1691,
      "বক্তব্য": 1692,
      "ঙে": 1693,
      "ড়ের": 1694,
      "পশ্চি": 1695,
      "সংখ": 1696,
      "তরে": 1697,
      "রাজনৈতিক": 1698,
      "সুতরাং": 1699,
      "ধরা": 1700,
      "সির": 1701,
      "বাড়ির": 1702,
      "ধিক": 1703,
      "চট্ট": 1704,
      "নিজেকে": 1705,
      "র্তি": 1706,
      "পবি": 1707,
      "এনে": 1708,
      "দূরে": 1709,
      "কণ্": 1710,
      "বৃহ": 1711,
      "ঘাত": 1712,
      "ইত্যা": 1713,
      "শুর": 1714,
      "হতো": 1715,
      "খারাপ": 1716,
      "ইসলামী": 1717,
      "নাট": 1718,
      "অবস্থান": 1719,
      "সংঘ": 1720,
      "দ্বী": 1721,
      "সমাজ": 1722,
      "২৯": 1723,
      "আর্": 1724,
      "জামা": 1725,
      "প্রত্যা": 1726,
      "ক্রে": 1727,
      "অধিকার": 1728,
      "হাসপাতা": 1729,
      "নাল": 1730,
      "মান্য": 1731,
      "দাম": 1732,
      "লতে": 1733,
      "সম্পর্ক": 1734,
      "মূল্য": 1735,
      "য়ী": 1736,
      "কখনও": 1737,
      "করছি": 1738,
      "পরিক": 1739,
      "২৬": 1740,
      "প্রদান": 1741,
      "লির": 1742,
      "স্যার": 1743,
      "ছন্দ": 1744,
      "ুয়ার": 1745,
      "পাথ": 1746,
      "ডের": 1747,
      "২১": 1748,
      "আগেই": 1749,
      "সম্পূর্ণ": 1750,
      "নিউ": 1751,
      "বললো": 1752,
      "চৌধ": 1753,
      "দিনে": 1754,
      "প্রতিনিধি": 1755,
      "ব্রি": 1756,
      "দেরকে": 1757,
      "বেঁ": 1758,
      "০১": 1759,
      "জিক": 1760,
      "ভোগ": 1761,
      "শনের": 1762,
      "গতি": 1763,
      "বাধা": 1764,
      "স্থানীয়": 1765,
      "সপ্ত": 1766,
      "নির্বাচন": 1767,
      "বিস্": 1768,
      "বললাম": 1769,
      "লীগের": 1770,
      "ইংরে": 1771,
      "পরা": 1772,
      "০৫": 1773,
      "হলেন": 1774,
      "যুক্তি": 1775,
      "পাহা": 1776,
      "জিজ্ঞে": 1777,
      "কোর": 1778,
      "র্শ": 1779,
      "জাহা": 1780,
      "পৃথিবী": 1781,
      "সাহেব": 1782,
      "দম": 1783,
      "চরণ": 1784,
      "অপেক্ষা": 1785,
      "সুখ": 1786,
      "স্টি": 1787,
      "দুজন": 1788,
      "মহিলা": 1789,
      "কদের": 1790,
      "ইব্": 1791,
      "স্বর": 1792,
      "ডাক": 1793,
      "খেয়ে": 1794,
      "এলাকায়": 1795,
      "থাকি": 1796,
      "পুরে": 1797,
      "তারি": 1798,
      "কাত": 1799,
      "খণ্ড": 1800,
      "জিজ্ঞেস": 1801,
      "গুণ": 1802,
      "তোর": 1803,
      "অনুর": 1804,
      "রাখতে": 1805,
      "নব": 1806,
      "স্বামী": 1807,
      "৩৮": 1808,
      "শ্বর": 1809,
      "মানের": 1810,
      "ফিক": 1811,
      "ফ্": 1812,
      "এখনও": 1813,
      "কোথাও": 1814,
      "বিবে": 1815,
      "রক্ষ": 1816,
      "সমস্যা": 1817,
      "পেরে": 1818,
      "আসতে": 1819,
      "বাধ্য": 1820,
      "নিঃ": 1821,
      "মুহূর্ত": 1822,
      "ক্তার": 1823,
      "ক্রিয়া": 1824,
      "বিজ্ঞান": 1825,
      "এঁ": 1826,
      "ক্রান্ত": 1827,
      "ড়ো": 1828,
      "ছয়": 1829,
      "মীর": 1830,
      "প্রথমে": 1831,
      "ইত্যাদি": 1832,
      "মহ": 1833,
      "রাখে": 1834,
      "কুমার": 1835,
      "থাকলে": 1836,
      "নিয়োগ": 1837,
      "হইবে": 1838,
      "চক": 1839,
      "ইসলামের": 1840,
      "দক্ষিণ": 1841,
      "রোগ": 1842,
      "সমূহ": 1843,
      "পয়": 1844,
      "আকাশ": 1845,
      "নেতৃ": 1846,
      "উদ্য": 1847,
      "যথা": 1848,
      "মায়": 1849,
      "আল্লাহ্": 1850,
      "অত্যন্ত": 1851,
      "কাজের": 1852,
      "যোগি": 1853,
      "দুঃখ": 1854,
      "দরজা": 1855,
      "থাকেন": 1856,
      "ষের": 1857,
      "দ্রুত": 1858,
      "সাল্লাম": 1859,
      "৬৮": 1860,
      "অনুযায়ী": 1861,
      "ঠিন": 1862,
      "ট্রে": 1863,
      "সকাল": 1864,
      "গড়ে": 1865,
      "ডু": 1866,
      "প্রাচ": 1867,
      "দ্ধা": 1868,
      "খর": 1869,
      "যোগা": 1870,
      "খুবই": 1871,
      "ক্ষেপ": 1872,
      "চান": 1873,
      "এখনো": 1874,
      "তান": 1875,
      "উল": 1876,
      "কেও": 1877,
      "জীবনে": 1878,
      "গেলেন": 1879,
      "তৎ": 1880,
      "নামের": 1881,
      "তালি": 1882,
      "আদায়": 1883,
      "কঠিন": 1884,
      "একমাত্র": 1885,
      "মন্ত": 1886,
      "বক": 1887,
      "আল্লাহ্র": 1888,
      "ভঙ্গ": 1889,
      "চুপ": 1890,
      "করত": 1891,
      "শোর": 1892,
      "তদ": 1893,
      "জবাব": 1894,
      "উদ্দেশ্য": 1895,
      "পাবে": 1896,
      "ইব্ন": 1897,
      "নৌ": 1898,
      "সন্দেহ": 1899,
      "দাঁড়িয়ে": 1900,
      "নান": 1901,
      "হইল": 1902,
      "ক্য": 1903,
      "সহায়": 1904,
      "ঘণ্": 1905,
      "পরিচয়": 1906,
      "স্তে": 1907,
      "আনা": 1908,
      "তাআলা": 1909,
      "থাকার": 1910,
      "চাপ": 1911,
      "ড়ির": 1912,
      "ব্যাংক": 1913,
      "অবশ্যই": 1914,
      "তাব": 1915,
      "অধিক": 1916,
      "কাগ": 1917,
      "জায়গায়": 1918,
      "দেশি": 1919,
      "তন্ত্র": 1920,
      "যাঁ": 1921,
      "গলায়": 1922,
      "৮৯": 1923,
      "কেরা": 1924,
      "বঙ্গ": 1925,
      "কালের": 1926,
      "শতাংশ": 1927,
      "দৃশ্য": 1928,
      "পরিণ": 1929,
      "নং": 1930,
      "প্রতিষ্ঠান": 1931,
      "৮৫": 1932,
      "র্ট": 1933,
      "সম্পাদক": 1934,
      "বন্দ": 1935,
      "পিত": 1936,
      "সামা": 1937,
      "গর্": 1938,
      "নামায": 1939,
      "র্জাতিক": 1940,
      "তুই": 1941,
      "গবে": 1942,
      "পৌঁ": 1943,
      "আসলে": 1944,
      "ঃপর": 1945,
      "ভাবিক": 1946,
      "কলকা": 1947,
      "কাটা": 1948,
      "হিসাবে": 1949,
      "প্রত্যেক": 1950,
      "ইউনিয়": 1951,
      "োধ": 1952,
      "স্বপ্": 1953,
      "সকালে": 1954,
      "লাগে": 1955,
      "র্য": 1956,
      "গভীর": 1957,
      "ধ্বং": 1958,
      "আন্তর্জাতিক": 1959,
      "বুদ্ধি": 1960,
      "শাস": 1961,
      "এদের": 1962,
      "ন্ধে": 1963,
      "আসবে": 1964,
      "বেড়ে": 1965,
      "বর্তমান": 1966,
      "স্থার": 1967,
      "গৌ": 1968,
      "ষ্কার": 1969,
      "দীন": 1970,
      "জিজ্ঞা": 1971,
      "ষ্ণ": 1972,
      "পদ্ধ": 1973,
      "গম": 1974,
      "দুল্লাহ": 1975,
      "বিষয়টি": 1976,
      "অতঃপর": 1977,
      "সড়": 1978,
      "৩৯": 1979,
      "তথা": 1980,
      "পরবর্তী": 1981,
      "দিত": 1982,
      "শোনা": 1983,
      "লুম": 1984,
      "পরিমাণ": 1985,
      "নদী": 1986,
      "মর্": 1987,
      "আগের": 1988,
      "হাল": 1989,
      "কালী": 1990,
      "নিহত": 1991,
      "অগ্র": 1992,
      "যদিও": 1993,
      "নেয়": 1994,
      "ধীরে": 1995,
      "প্যা": 1996,
      "আমের": 1997,
      "িল": 1998,
      "সঠিক": 1999,
      "ড়াল": 2000,
      "গলা": 2001,
      "বিধ": 2002,
      "ঢ়": 2003,
      "প্রস্তা": 2004,
      "স্বাভাবিক": 2005,
      "আবি": 2006,
      "শাস্তি": 2007,
      "বাসী": 2008,
      "চন্দ্র": 2009,
      "পাশা": 2010,
      "বলিয়া": 2011,
      "কমে": 2012,
      "ব্যাখ্যা": 2013,
      "সাক্ষ": 2014,
      "জনা": 2015,
      "বিরোধী": 2016,
      "আক্রম": 2017,
      "ঘুরে": 2018,
      "পাক": 2019,
      "িকা": 2020,
      "বুল": 2021,
      "ঠো": 2022,
      "আশ্র": 2023,
      "দ্রা": 2024,
      "আনন্দ": 2025,
      "পবিত্র": 2026,
      "বাগ": 2027,
      "নেন": 2028,
      "বাকি": 2029,
      "গায়ে": 2030,
      "৫৫": 2031,
      "সম্পদ": 2032,
      "নিরাপ": 2033,
      "সারে": 2034,
      "ইতিহাস": 2035,
      "ীতি": 2036,
      "ৃত": 2037,
      "ক্রমে": 2038,
      "দিলে": 2039,
      "কিত": 2040,
      "৩১": 2041,
      "পরীক্ষা": 2042,
      "স্থির": 2043,
      "মাসে": 2044,
      "খাওয়া": 2045,
      "উদ্ধার": 2046,
      "চোখের": 2047,
      "রূপে": 2048,
      "ন্স": 2049,
      "কাণ্ড": 2050,
      "চরিত": 2051,
      "০৬": 2052,
      "সবার": 2053,
      "পড়েছে": 2054,
      "বলী": 2055,
      "মামলা": 2056,
      "তেমন": 2057,
      "৩৬": 2058,
      "পরিবেশ": 2059,
      "জোর": 2060,
      "কল্যা": 2061,
      "ওয়": 2062,
      "প্রশ": 2063,
      "মৃত": 2064,
      "ভেতরে": 2065,
      "ব্যক্তির": 2066,
      "ভয়ে": 2067,
      "সহজ": 2068,
      "গঞ্জ": 2069,
      "হাসান": 2070,
      "লক": 2071,
      "ভাষায়": 2072,
      "উদ্দিন": 2073,
      "ইহা": 2074,
      "ভেঙে": 2075,
      "হিন্দু": 2076,
      "শিক্ষার্থ": 2077,
      "পোশা": 2078,
      "তৃতীয়": 2079,
      "জমা": 2080,
      "গাঁ": 2081,
      "এরা": 2082,
      "ল্যান্ড": 2083,
      "তীত": 2084,
      "ট্": 2085,
      "হেতু": 2086,
      "করলাম": 2087,
      "চিঠি": 2088,
      "সম্মান": 2089,
      "চৌধুরী": 2090,
      "সরে": 2091,
      "দয়": 2092,
      "গ্রন্থ": 2093,
      "দৈ": 2094,
      "খেতে": 2095,
      "ফাঁ": 2096,
      "উপজেলা": 2097,
      "স্থিতি": 2098,
      "স্কার": 2099,
      "চী": 2100,
      "পরিবর্তন": 2101,
      "আবদুল": 2102,
      "নিজস্ব": 2103,
      "বরণ": 2104,
      "পরিকল্প": 2105,
      "টিং": 2106,
      "কাউকে": 2107,
      "ুণ": 2108,
      "কম্": 2109,
      "মঙ্গল": 2110,
      "খল": 2111,
      "জাত": 2112,
      "উপজেলার": 2113,
      "রুল": 2114,
      "অধ্যা": 2115,
      "কারও": 2116,
      "১৯৭": 2117,
      "বলার": 2118,
      "মধ্যেই": 2119,
      "কির": 2120,
      "মিয়ে": 2121,
      "শান্তি": 2122,
      "সাল": 2123,
      "চলা": 2124,
      "প্রধানমন্ত্রী": 2125,
      "ব্যবসায়": 2126,
      "কোম্": 2127,
      "উপরে": 2128,
      "ভাবনা": 2129,
      "মিথ্যা": 2130,
      "ঘন": 2131,
      "পরের": 2132,
      "তল": 2133,
      "বুক": 2134,
      "কানে": 2135,
      "কারো": 2136,
      "উপায়": 2137,
      "৩৭": 2138,
      "শিয়া": 2139,
      "ঈমান": 2140,
      "মেয়ের": 2141,
      "৪৮": 2142,
      "ড়াতে": 2143,
      "প্রের": 2144,
      "মসজি": 2145,
      "বেশী": 2146,
      "আগামী": 2147,
      "দিষ্ট": 2148,
      "মরণ": 2149,
      "কিনা": 2150,
      "জিয়া": 2151,
      "অঞ্": 2152,
      "পরিচালক": 2153,
      "যুদ্ধের": 2154,
      "পরিষ": 2155,
      "গ্রামে": 2156,
      "নিয়ন্ত্র": 2157,
      "জুর": 2158,
      "ানায়": 2159,
      "হেসে": 2160,
      "নিত": 2161,
      "স্থাপন": 2162,
      "পরিচিত": 2163,
      "বৃষ্টি": 2164,
      "বাহিনীর": 2165,
      "ঘে": 2166,
      "জিজ্ঞাসা": 2167,
      "মৃত্যুর": 2168,
      "কৌশ": 2169,
      "সম্প্র": 2170,
      "শালী": 2171,
      "খোঁ": 2172,
      "ুক": 2173,
      "মুল": 2174,
      "বহ": 2175,
      "সুরা": 2176,
      "তরু": 2177,
      "ভগ": 2178,
      "শৃ": 2179,
      "নিল": 2180,
      "খাবার": 2181,
      "বৃদ্ধি": 2182,
      "কার্": 2183,
      "নিশ্চয়ই": 2184,
      "সাধ": 2185,
      "প্টে": 2186,
      "আশ্": 2187,
      "কট": 2188,
      "প্রত্য": 2189,
      "দণ্ড": 2190,
      "চাঁ": 2191,
      "সামান্য": 2192,
      "সূত্র": 2193,
      "পার্থ": 2194,
      "লাইন": 2195,
      "নৈতিক": 2196,
      "ন্টি": 2197,
      "ভেতর": 2198,
      "মাছ": 2199,
      "আয়া": 2200,
      "যোগাযোগ": 2201,
      "কাপড়": 2202,
      "তাল": 2203,
      "ইবনু": 2204,
      "টেলি": 2205,
      "ৃতি": 2206,
      "বাসা": 2207,
      "মোট": 2208,
      "ফ্র": 2209,
      "পেতে": 2210,
      "তাকা": 2211,
      "বাতি": 2212,
      "প্রভাব": 2213,
      "প্রতিটি": 2214,
      "জনক": 2215,
      "টান": 2216,
      "পৃষ্ঠ": 2217,
      "শিক্ষক": 2218,
      "সেদিন": 2219,
      "ঘটনার": 2220,
      "চতু": 2221,
      "প্তার": 2222,
      "কথ": 2223,
      "গ্যা": 2224,
      "পৃথিবীর": 2225,
      "ুয়ারি": 2226,
      "শুনতে": 2227,
      "পদে": 2228,
      "সম্মে": 2229,
      "মানুষকে": 2230,
      "প্রকার": 2231,
      "ভদ্র": 2232,
      "রঙ": 2233,
      "রাস": 2234,
      "চলছে": 2235,
      "অল": 2236,
      "ত্বে": 2237,
      "সামাজিক": 2238,
      "পাশ": 2239,
      "পড়তে": 2240,
      "বলছে": 2241,
      "পেছনে": 2242,
      "ব্যস্ত": 2243,
      "দির": 2244,
      "েরা": 2245,
      "বলেই": 2246,
      "যাও": 2247,
      "ীকে": 2248,
      "মূলক": 2249,
      "৪৫": 2250,
      "অক্": 2251,
      "ধো": 2252,
      "নগ": 2253,
      "সংগ্রহ": 2254,
      "তদন্ত": 2255,
      "র্ষ": 2256,
      "যথে": 2257,
      "পাপ": 2258,
      "গোপন": 2259,
      "গন্ধ": 2260,
      "আনু": 2261,
      "নির্মাণ": 2262,
      "পিতা": 2263,
      "খুশি": 2264,
      "ন্না": 2265,
      "সম্বন্ধে": 2266,
      "পট": 2267,
      "মায়ের": 2268,
      "সুবিধা": 2269,
      "জানেন": 2270,
      "হয়েছেন": 2271,
      "পছন্দ": 2272,
      "মেনে": 2273,
      "যিনি": 2274,
      "সাদা": 2275,
      "সহী": 2276,
      "মির": 2277,
      "লাশ": 2278,
      "এফ": 2279,
      "কথায়": 2280,
      "নিচে": 2281,
      "অতএব": 2282,
      "চেয়ারম্যান": 2283,
      "ভবিষ": 2284,
      "খ্যাত": 2285,
      "অস্ত্র": 2286,
      "পুরের": 2287,
      "নন": 2288,
      "দোষ": 2289,
      "নারে": 2290,
      "পরিবার": 2291,
      "ন্যায়": 2292,
      "সুল": 2293,
      "অস্ত": 2294,
      "দাহ": 2295,
      "কলেজ": 2296,
      "ম্বা": 2297,
      "চট্টগ্রাম": 2298,
      "হইয়াছে": 2299,
      "নই": 2300,
      "সংখ্য": 2301,
      "রং": 2302,
      "হাতের": 2303,
      "আদেশ": 2304,
      "ডো": 2305,
      "জার্": 2306,
      "টাকার": 2307,
      "শহর": 2308,
      "সোম": 2309,
      "মুখের": 2310,
      "পাশি": 2311,
      "চন": 2312,
      "ংসা": 2313,
      "রাগ": 2314,
      "নীল": 2315,
      "প্রকৃত": 2316,
      "গ্রেপ্তার": 2317,
      "ক্কা": 2318,
      "পড়ি": 2319,
      "জাতির": 2320,
      "ত্যাগ": 2321,
      "অন্তর্": 2322,
      "যুদ্ধে": 2323,
      "সময়ের": 2324,
      "উট": 2325,
      "তাড়া": 2326,
      "ডাক্তার": 2327,
      "ম্য": 2328,
      "আলোকে": 2329,
      "বন্": 2330,
      "বেল": 2331,
      "তেও": 2332,
      "ঘি": 2333,
      "ছুটে": 2334,
      "আহত": 2335,
      "খুঁজে": 2336,
      "৬৯": 2337,
      "পুলিশের": 2338,
      "(,": 2339,
      "যুগ": 2340,
      "প্রভ": 2341,
      "ওয়ান": 2342,
      "ান্না": 2343,
      "তঃ": 2344,
      "গিয়েছিল": 2345,
      "চম": 2346,
      "শায়": 2347,
      "আসার": 2348,
      "করলো": 2349,
      "তিনটি": 2350,
      "ভ্যা": 2351,
      "উন্ন": 2352,
      "আহমদ": 2353,
      "রর": 2354,
      "পাশের": 2355,
      "রাজধান": 2356,
      "ভারতীয়": 2357,
      "কিশোর": 2358,
      "করেই": 2359,
      "বাবার": 2360,
      "বাজারে": 2361,
      "ভবিষ্য": 2362,
      "আগুন": 2363,
      "ঙ্ক": 2364,
      "ছাড়": 2365,
      "শহরের": 2366,
      "ইনি": 2367,
      "্যারি": 2368,
      "এমনকি": 2369,
      "মেরে": 2370,
      "উভয়": 2371,
      "হারিয়ে": 2372,
      "ওটা": 2373,
      "নিবার": 2374,
      "রয়ে": 2375,
      "আলম": 2376,
      "অবাক": 2377,
      "নূ": 2378,
      "পেল": 2379,
      "স্টা": 2380,
      "গারে": 2381,
      "রসূ": 2382,
      "পাশাপাশি": 2383,
      "মণ": 2384,
      "৭০": 2385,
      "৪৯": 2386,
      "শোধ": 2387,
      "কথাটা": 2388,
      "মিটার": 2389,
      "চ্য": 2390,
      "বৃদ্ধ": 2391,
      "দুর্বল": 2392,
      "৮১": 2393,
      "বিজয়": 2394,
      "নিষে": 2395,
      "অপরাধ": 2396,
      "বাচ্": 2397,
      "ঘটনায়": 2398,
      "যথেষ্ট": 2399,
      "খোলা": 2400,
      "চ্যা": 2401,
      "সাদ": 2402,
      "সত্ত": 2403,
      "বিএনপির": 2404,
      "আকা": 2405,
      "সহিত": 2406,
      "টেনে": 2407,
      "সিডে": 2408,
      "জড়": 2409,
      "শির": 2410,
      "মর্যা": 2411,
      "শর্ত": 2412,
      "ইচ্ছে": 2413,
      "জেনে": 2414,
      "জাহ": 2415,
      "পরিবারের": 2416,
      "বিনি": 2417,
      "অনা": 2418,
      "বুঝে": 2419,
      "ষু": 2420,
      "পানির": 2421,
      "রাস্তা": 2422,
      "নির্দিষ্ট": 2423,
      "বাদের": 2424,
      "ঢুকে": 2425,
      "ভুক্ত": 2426,
      "পাকিস্তান": 2427,
      "বয়স": 2428,
      "বৌ": 2429,
      "মিয়া": 2430,
      "নম্বর": 2431,
      "প্রতিবেদক": 2432,
      "দিগ": 2433,
      "্তে": 2434,
      "সাক্ষা": 2435,
      "ঘুর": 2436,
      "তেমনি": 2437,
      "ভাবেই": 2438,
      "বলো": 2439,
      "ণাল": 2440,
      "মেন্ট": 2441,
      "রাট": 2442,
      "প্ল": 2443,
      "উপল": 2444,
      "পল": 2445,
      "ক্ষমা": 2446,
      "বর্তমানে": 2447,
      "বিক্রি": 2448,
      "সুস্থ": 2449,
      "হরি": 2450,
      "বাতা": 2451,
      "সাবেক": 2452,
      "গ্ন": 2453,
      "চালা": 2454,
      "কয়েকটি": 2455,
      "কারি": 2456,
      "তাহাদের": 2457,
      "বাণি": 2458,
      "কিয়া": 2459,
      "লেক": 2460,
      "মোহাম্মদ": 2461,
      "পাঠা": 2462,
      "পঞ্চ": 2463,
      "বৈঠ": 2464,
      "অং": 2465,
      "এলাকা": 2466,
      "বটে": 2467,
      "অনুসর": 2468,
      "লোকে": 2469,
      "ডেকে": 2470,
      "মুর": 2471,
      "রচনা": 2472,
      "পোশাক": 2473,
      "স্বাস্থ": 2474,
      "শাই": 2475,
      "সপ্তা": 2476,
      "ঘুম": 2477,
      "বিভাগের": 2478,
      "বিশাল": 2479,
      "সাড়ে": 2480,
      "যী": 2481,
      "হুল": 2482,
      "ুতি": 2483,
      "পরিণত": 2484,
      "পর্যায়ে": 2485,
      "৬৫": 2486,
      "আক": 2487,
      "লীগ": 2488,
      "নির্ভর": 2489,
      "আয়োজন": 2490,
      "পক্ষের": 2491,
      "লেট": 2492,
      "টিক": 2493,
      "ওল": 2494,
      "হবার": 2495,
      "আপনাদের": 2496,
      "এদিকে": 2497,
      "কীভাবে": 2498,
      "প্রকাশিত": 2499,
      "ভাগ্য": 2500,
      "পশ্চিম": 2501,
      "শ্রমিক": 2502,
      "সাংবা": 2503,
      "বোর্": 2504,
      "ধ্বংস": 2505,
      "লোকটা": 2506,
      "ছন": 2507,
      "উত্তম": 2508,
      "খারী": 2509,
      "ফোর": 2510,
      "অল্প": 2511,
      "রাঃ": 2512,
      "ধ্ব": 2513,
      "চুক্তি": 2514,
      "বাঙা": 2515,
      "জঙ্গ": 2516,
      "সৈন্য": 2517,
      "ডিয়া": 2518,
      "পরীক্ষ": 2519,
      "ইউরো": 2520,
      "উন": 2521,
      "করী": 2522,
      "প্রস্তাব": 2523,
      "শহী": 2524,
      "কাহি": 2525,
      "পেক্ষ": 2526,
      "জানো": 2527,
      "ইর": 2528,
      "ণীর": 2529,
      "বৃত্ত": 2530,
      "নাও": 2531,
      "শূ": 2532,
      "উৎপা": 2533,
      "জিব": 2534,
      "বাণী": 2535,
      "মতের": 2536,
      "খানি": 2537,
      "স্কু": 2538,
      "বাদে": 2539,
      "সেবা": 2540,
      "উঠেছে": 2541,
      "মেদ": 2542,
      "মতা": 2543,
      "বিজ্ঞ": 2544,
      "হাট": 2545,
      "যেসব": 2546,
      "চ্ছেদ": 2547,
      "গেছেন": 2548,
      "ব্যাপারটা": 2549,
      "সঙ্গ": 2550,
      "অঙ্গ": 2551,
      "পালা": 2552,
      "কিছুক্ষণ": 2553,
      "আলাদা": 2554,
      "বেদ": 2555,
      "১৯৯": 2556,
      "মালা": 2557,
      "লিখিত": 2558,
      "বিস্তার": 2559,
      "ঘণ্টা": 2560,
      "বলবে": 2561,
      "জুন": 2562,
      "পর্ব": 2563,
      "প্রো": 2564,
      "কাঠ": 2565,
      "আত্": 2566,
      "দ্রো": 2567,
      "অর্জন": 2568,
      "নৃ": 2569,
      "গিয়া": 2570,
      "মুহাম্মদ": 2571,
      "পাওয়ার": 2572,
      "গুলোকে": 2573,
      "ঢে": 2574,
      "মাকে": 2575,
      "সভায়": 2576,
      "রাষ্ট্রের": 2577,
      "রাখার": 2578,
      "পরাম": 2579,
      "এটাই": 2580,
      "আও": 2581,
      "বোঝ": 2582,
      "আছি": 2583,
      "বংশ": 2584,
      "প্রাথ": 2585,
      "উক্ত": 2586,
      "মাথার": 2587,
      "বিশ্ববিদ্যালয়ের": 2588,
      "মাসের": 2589,
      "ওখানে": 2590,
      "দলে": 2591,
      "বাংলাদেশে": 2592,
      "মুসা": 2593,
      "বিছ": 2594,
      "স্থায়ী": 2595,
      "অনুষ্ঠিত": 2596,
      "গির": 2597,
      "গুরুত্বপূর্ণ": 2598,
      "অনুষ্ঠানে": 2599,
      "চুল": 2600,
      "দেখিয়ে": 2601,
      "টিশ": 2602,
      "সর্বো": 2603,
      "বছরে": 2604,
      "পাঠিয়ে": 2605,
      "্না": 2606,
      "নিষ্ঠ": 2607,
      "আপন": 2608,
      "ছড়িয়ে": 2609,
      "স্কুল": 2610,
      "সমুদ্র": 2611,
      "কাপ": 2612,
      "ফস": 2613,
      "এক্": 2614,
      "একট": 2615,
      "৪৭": 2616,
      "কিছুটা": 2617,
      "একথা": 2618,
      "ানু": 2619,
      "অনি": 2620,
      "এলাকার": 2621,
      "ঠাকুর": 2622,
      "বাসে": 2623,
      "খানিক": 2624,
      "সাহিত্য": 2625,
      "সেখান": 2626,
      "মন্ত্রণাল": 2627,
      "এখান": 2628,
      "মানা": 2629,
      "সীমা": 2630,
      "মেলা": 2631,
      "সম্পন্ন": 2632,
      "পপ": 2633,
      "সিটি": 2634,
      "্বান": 2635,
      "এলো": 2636,
      "ডান": 2637,
      "যাত্রা": 2638,
      "৮০০": 2639,
      "খালি": 2640,
      "কবে": 2641,
      "কং": 2642,
      "রাজ্য": 2643,
      "পায়ে": 2644,
      "ছল": 2645,
      "খুল": 2646,
      "হস্ত": 2647,
      "বাজে": 2648,
      "ীতে": 2649,
      "কুরআ": 2650,
      "অধ্যায়": 2651,
      "যাক": 2652,
      "ান্তর": 2653,
      "প্রাথমিক": 2654,
      "মুনা": 2655,
      "বিভাগ": 2656,
      "পনা": 2657,
      "আক্রমণ": 2658,
      "কাট": 2659,
      "যোগে": 2660,
      "আধু": 2661,
      "মন্দি": 2662,
      "বিশ্বের": 2663,
      "ভাঙ": 2664,
      "আপনারা": 2665,
      "সঞ্": 2666,
      "৬১": 2667,
      "জন্যই": 2668,
      "কালীন": 2669,
      "ইতে": 2670,
      "অনুমতি": 2671,
      "ান্ড": 2672,
      "প্রেসিডে": 2673,
      "উর": 2674,
      "০৮০": 2675,
      "আশ্রয়": 2676,
      "স্বাস্থ্য": 2677,
      "নিজেই": 2678,
      "খালে": 2679,
      "শুক্র": 2680,
      "আন্দোলন": 2681,
      "কল্যাণ": 2682,
      "বৎ": 2683,
      "সুলত": 2684,
      "চরিত্র": 2685,
      "খ্রি": 2686,
      "বুধ": 2687,
      "ঙ্কা": 2688,
      "রব": 2689,
      "নষ্ট": 2690,
      "জনকে": 2691,
      "০৩": 2692,
      "অনুসরণ": 2693,
      "বিদ্যু": 2694,
      "খায়": 2695,
      "মুসলমানদের": 2696,
      "বুঝি": 2697,
      "ঙ্গে": 2698,
      "শুয়ে": 2699,
      "লাগা": 2700,
      "কথার": 2701,
      "স্পতি": 2702,
      "আগ্রহ": 2703,
      "ভক্ত": 2704,
      "উন্নয়ন": 2705,
      "দেখল": 2706,
      "তাহাকে": 2707,
      "এরকম": 2708,
      "ওপরে": 2709,
      "সদর": 2710,
      "উচ্": 2711,
      "জ্জ": 2712,
      "৬৭": 2713,
      "উদ্দেশ্যে": 2714,
      "দিচ্ছে": 2715,
      "রিক": 2716,
      "সাংবাদিক": 2717,
      "পাস": 2718,
      "সিল": 2719,
      "তালা": 2720,
      "বিনা": 2721,
      "করিলেন": 2722,
      "বিশ": 2723,
      "হ্ম": 2724,
      "মুহাম্": 2725,
      "শ্রা": 2726,
      "ইসলা": 2727,
      "নিয়ার": 2728,
      "আধ": 2729,
      "যাদের": 2730,
      "তুর": 2731,
      "লিল": 2732,
      "ভূমিকা": 2733,
      "সতর্ক": 2734,
      "কলা": 2735,
      "রিক্ত": 2736,
      "আচরণ": 2737,
      "যাবার": 2738,
      "ব্যর্থ": 2739,
      "অন্যতম": 2740,
      "উম্": 2741,
      "ঝুঁ": 2742,
      "কূ": 2743,
      "চিব": 2744,
      "দ্দ": 2745,
      "পুরা": 2746,
      "বস্তু": 2747,
      "কাংশ": 2748,
      "নিয়েছে": 2749,
      "থানার": 2750,
      "মাটি": 2751,
      "স্বাধীনতা": 2752,
      "নিয়ম": 2753,
      "ব্যবসা": 2754,
      "্রিক": 2755,
      "কহি": 2756,
      "সফল": 2757,
      "বলেছে": 2758,
      "প্রতিষ্ঠা": 2759,
      "লিং": 2760,
      "বাস্তব": 2761,
      "বলছি": 2762,
      "শ্রেষ্ঠ": 2763,
      "সিয়া": 2764,
      "তায়া": 2765,
      "বুকে": 2766,
      "বিবাহ": 2767,
      "পরিকল্পনা": 2768,
      "গীত": 2769,
      "সৎ": 2770,
      "স্র": 2771,
      "ডিও": 2772,
      "কর্তৃক": 2773,
      "আবদুল্লাহ": 2774,
      "লাস": 2775,
      "দানের": 2776,
      "হজ": 2777,
      "বৃহস্পতি": 2778,
      "মুহূর্তে": 2779,
      "ডলার": 2780,
      "সকলের": 2781,
      "নীত": 2782,
      "সালাম": 2783,
      "পদ্ধতি": 2784,
      "রাতের": 2785,
      "বউ": 2786,
      "নদীর": 2787,
      "রোব": 2788,
      "কৃতির": 2789,
      "যাকে": 2790,
      "হাসপাতালে": 2791,
      "চাহি": 2792,
      "আসল": 2793,
      "পেয়েছে": 2794,
      "চূ": 2795,
      "হইলে": 2796,
      "ন্দের": 2797,
      "বলেছিলেন": 2798,
      "কুম": 2799,
      "ফী": 2800,
      "অভ্য": 2801,
      "মার্কিন": 2802,
      "দাওয়া": 2803,
      "গৃহ": 2804,
      "হোটে": 2805,
      "তাহারা": 2806,
      "৪১": 2807,
      "অভিজ্ঞ": 2808,
      "ট্যা": 2809,
      "৫৮": 2810,
      "আদি": 2811,
      "জাল": 2812,
      "বিরাট": 2813,
      "ভর্তি": 2814,
      "প্রান্ত": 2815,
      "ডিসে": 2816,
      "কমিটির": 2817,
      "সামর": 2818,
      "চালিয়ে": 2819,
      "স্ট্রে": 2820,
      "লড়াই": 2821,
      "পারা": 2822,
      "সূত্রে": 2823,
      "দয়া": 2824,
      "র্যা": 2825,
      "স্বপ্ন": 2826,
      "এলে": 2827,
      "ত্রের": 2828,
      "মিনিট": 2829,
      "সামরিক": 2830,
      "নিরাপত্তা": 2831,
      "ওয়াসাল্লাম": 2832,
      "গঞ্": 2833,
      "আঘাত": 2834,
      "বহন": 2835,
      "ঝো": 2836,
      "ছেলের": 2837,
      "ব্যাংকের": 2838,
      "যেহেতু": 2839,
      "ফাই": 2840,
      "ত্রা": 2841,
      "বিশ্ববিদ্যালয়": 2842,
      "ধারে": 2843,
      "গুলোতে": 2844,
      "ব্যাপক": 2845,
      "কেলে": 2846,
      "৪৩": 2847,
      "স্তায়": 2848,
      "হাওয়া": 2849,
      "আরা": 2850,
      "অন্তত": 2851,
      "লোকেরা": 2852,
      "কাজেই": 2853,
      "বাসি": 2854,
      "চিৎকার": 2855,
      "ছুর": 2856,
      "জানায়": 2857,
      "প্য": 2858,
      "ব্যয়": 2859,
      "গাছের": 2860,
      "পরামর্শ": 2861,
      "অধিকাংশ": 2862,
      "সিয়ে": 2863,
      "আধুনিক": 2864,
      "বুখারী": 2865,
      "প্রকল্প": 2866,
      "পৌছে": 2867,
      "শান": 2868,
      "পরিত": 2869,
      "যথ": 2870,
      "অন্ধকার": 2871,
      "সিনে": 2872,
      "মুখো": 2873,
      "নগর": 2874,
      "চিকিৎসা": 2875,
      "নিম্": 2876,
      "আহমেদ": 2877,
      "বলছেন": 2878,
      "ফিরিয়ে": 2879,
      "মান্": 2880,
      "বার্তা": 2881,
      "সহীহ": 2882,
      "লনে": 2883,
      "অক্টো": 2884,
      "পণ্য": 2885,
      "প্রাচীন": 2886,
      "য়ং": 2887,
      "চেহারা": 2888,
      "চলচ্": 2889,
      "পর্যস্ত": 2890,
      "বিএনপি": 2891,
      "পুল": 2892,
      "আচ্ছা": 2893,
      "লম্বা": 2894,
      "এমনি": 2895,
      "শহরে": 2896,
      "ক্রো": 2897,
      "জেনারে": 2898,
      "বরে": 2899,
      "সন্ত্র": 2900,
      "চিহ্": 2901,
      "স্মরণ": 2902,
      "কার্যাল": 2903,
      "অন্": 2904,
      "য়োগ": 2905,
      "খাদ্য": 2906,
      "আবুল": 2907,
      "করেনি": 2908,
      "হও": 2909,
      "যেত": 2910,
      "যাহা": 2911,
      "বহি": 2912,
      "বয়ে": 2913,
      "মার্চ": 2914,
      "বাণিজ্য": 2915,
      "জ্যা": 2916,
      "আরব": 2917,
      "গরি": 2918,
      "এরূপ": 2919,
      "পনের": 2920,
      "কর্মসূ": 2921,
      "নাগর": 2922,
      "রইল": 2923,
      "৮৬": 2924,
      "নেওয়ার": 2925,
      "স্তর": 2926,
      "আমিও": 2927,
      "তারিখ": 2928,
      "দত্ত": 2929,
      "জলে": 2930,
      "শ্যা": 2931,
      "গ্রী": 2932,
      "ইতিহা": 2933,
      "সেপ্টে": 2934,
      "কৃতিক": 2935,
      "টাও": 2936,
      "গড়": 2937,
      "কণ্ঠ": 2938,
      "কাগজ": 2939,
      "অগ্": 2940,
      "দুনিয়া": 2941,
      "নামক": 2942,
      "বদলে": 2943,
      "প্রেম": 2944,
      "যোগী": 2945,
      "ইন্টার": 2946,
      "যোগিতা": 2947,
      "সেরা": 2948,
      "যুগে": 2949,
      "কৃষ্ণ": 2950,
      "০০০০০০০০": 2951,
      "চারি": 2952,
      "ভোট": 2953,
      "মাঠে": 2954,
      "পারবেন": 2955,
      "অতিরিক্ত": 2956,
      "লনের": 2957,
      "গুলির": 2958,
      "সমাজের": 2959,
      "লোকদের": 2960,
      "ানী": 2961,
      "প্রস্তুত": 2962,
      "ধূ": 2963,
      "দেবেন": 2964,
      "বাজ": 2965,
      "কতা": 2966,
      "৪৬": 2967,
      "কটি": 2968,
      "ইট": 2969,
      "শুভ": 2970,
      "পুরস্কার": 2971,
      "রহি": 2972,
      "সোমবার": 2973,
      "চর্য": 2974,
      "ইংরেজি": 2975,
      "ক্ষণে": 2976,
      "হাজির": 2977,
      "আবেদন": 2978,
      "পাথর": 2979,
      "বিপ": 2980,
      "অদ্": 2981,
      "৮৩": 2982,
      "হামলা": 2983,
      "জীবী": 2984,
      "বৃহস্পতিবার": 2985,
      "লিতে": 2986,
      "০৭": 2987,
      "চাইলে": 2988,
      "এগুলো": 2989,
      "চনার": 2990,
      "বড়ো": 2991,
      "বোন": 2992,
      "ইয়ে": 2993,
      "পেশ": 2994,
      "সবই": 2995,
      "বাচ্চা": 2996,
      "রাজি": 2997,
      "পায়ের": 2998,
      "করিবে": 2999,
      "মন্দ": 3000,
      "চাকরি": 3001,
      "লোকজন": 3002,
      "স্মৃ": 3003,
      "কবিতা": 3004,
      "সাঁ": 3005,
      "অধ্যাপক": 3006,
      "বিধি": 3007,
      "ল্ল": 3008,
      "দখল": 3009,
      "শিকার": 3010,
      "ইউনি": 3011,
      "কটা": 3012,
      "রবী": 3013,
      "বুধবার": 3014,
      "বত": 3015,
      "মিলে": 3016,
      "শক্র": 3017,
      "যুব": 3018,
      "তখনই": 3019,
      "পরিষ্কার": 3020,
      "নেয়া": 3021,
      "দৃঢ়": 3022,
      "মোটা": 3023,
      "আসেন": 3024,
      "লেগে": 3025,
      "চেপে": 3026,
      "ক্ট": 3027,
      "ছায়া": 3028,
      "উঠতে": 3029,
      "বেঁচে": 3030,
      "মেঘ": 3031,
      "কই": 3032,
      "পড়ার": 3033,
      "আমল": 3034,
      "গ্ধ": 3035,
      "ভুলে": 3036,
      "সোনা": 3037,
      "সংস্থা": 3038,
      "ঈশ্বর": 3039,
      "প্রতিষ্ঠিত": 3040,
      "কয়েকজন": 3041,
      "শাসক": 3042,
      "খরচ": 3043,
      "পারেনি": 3044,
      "বাক্য": 3045,
      "সমাধান": 3046,
      "্রী": 3047,
      "য়েল": 3048,
      "ফট": 3049,
      "নির্বাচনে": 3050,
      "রেল": 3051,
      "জান্না": 3052,
      "মর্যাদা": 3053,
      "পোর্ট": 3054,
      "পৃথ": 3055,
      "বার্থ": 3056,
      "শুদ্ধ": 3057,
      "প্রার্থনা": 3058,
      "ফ্যা": 3059,
      "শনিবার": 3060,
      "১১০": 3061,
      "কেন্দ্রীয়": 3062,
      "আদালত": 3063,
      "ত্রী": 3064,
      "বিপদ": 3065,
      "ঝি": 3066,
      "গড়া": 3067,
      "দেখার": 3068,
      "ছাড়াও": 3069,
      "সেটি": 3070,
      "শহীদ": 3071,
      "সমি": 3072,
      "আহ্বান": 3073,
      "ক্টর": 3074,
      "দেয়ার": 3075,
      "৫৯": 3076,
      "ভরে": 3077,
      "সমগ্র": 3078,
      "ওনা": 3079,
      "অস্বীকার": 3080,
      "৮৭": 3081,
      "বলম্ব": 3082,
      "মরে": 3083,
      "মন্তব্য": 3084,
      "ভিতর": 3085,
      "লাফ": 3086,
      "নাগরিক": 3087,
      "এক্স": 3088,
      "মঙ্গলবার": 3089,
      "প্রয়োজনীয়": 3090,
      "খাঁ": 3091,
      "চালু": 3092,
      "আস্তে": 3093,
      "করিয়ে": 3094,
      "বাম": 3095,
      "ক্রয়": 3096,
      "প্রেসিডেন্ট": 3097,
      "ভিতরে": 3098,
      "্তি": 3099,
      "পিছনে": 3100,
      "বাবুর": 3101,
      "৩২": 3102,
      "প্তি": 3103,
      "বিপরী": 3104,
      "চলতে": 3105,
      "সংগঠন": 3106,
      "পঞ্": 3107,
      "গোটা": 3108,
      "হারাম": 3109,
      "চলেছে": 3110,
      "দেখুন": 3111,
      "নজ": 3112,
      "দিগকে": 3113,
      "পারব": 3114,
      "চিন": 3115,
      "ম্যাচ": 3116,
      "রাস্তায়": 3117,
      "শিয়ার": 3118,
      "আবূ": 3119,
      "রণের": 3120,
      "ষক": 3121,
      "গোষ্ঠ": 3122,
      "মুন": 3123,
      "ন্দে": 3124,
      "লইয়া": 3125,
      "দলীয়": 3126,
      "দোকান": 3127,
      "অক্টোবর": 3128,
      "চনায়": 3129,
      "জুলাই": 3130,
      "লেখক": 3131,
      "অনুষ্ঠান": 3132,
      "গিয়েছে": 3133,
      "জিন": 3134,
      "সংশ্": 3135,
      "রম": 3136,
      "মান্ত": 3137,
      "সিরি": 3138,
      "গুপ্ত": 3139,
      "শক্ত": 3140,
      "গেলাম": 3141,
      "হতা": 3142,
      "ত্বের": 3143,
      "বলিল": 3144,
      "সূর্য": 3145,
      "সহজে": 3146,
      "ব্যক্তিগত": 3147,
      "তাপ": 3148,
      "জাহি": 3149,
      "্া": 3150,
      "ইহার": 3151,
      "কিল": 3152,
      "৫৭": 3153,
      "পয়ে": 3154,
      "বুদ্ধ": 3155,
      "লিষ্ট": 3156,
      "ল্ড": 3157,
      "কারীদের": 3158,
      "সমর্থন": 3159,
      "তরুণ": 3160,
      "ত্ম": 3161,
      "খেল": 3162,
      "ক্ষো": 3163,
      "আখ": 3164,
      "মণ্ড": 3165,
      "ইয়": 3166,
      "পড়বে": 3167,
      "আযা": 3168,
      "নভে": 3169,
      "কন্যা": 3170,
      "ভুত": 3171,
      "সুন": 3172,
      "অর্থনৈতিক": 3173,
      "শনে": 3174,
      "লিপি": 3175,
      "সংসার": 3176,
      "টিল": 3177,
      "ুপ": 3178,
      "আলে": 3179,
      "সবু": 3180,
      "অবস্থিত": 3181,
      "বলিলেন": 3182,
      "লিন": 3183,
      "প্রয়োগ": 3184,
      "অবি": 3185,
      "টেই": 3186,
      "পরস্": 3187,
      "বৃত্তি": 3188,
      "প্রার্থী": 3189,
      "কঠ": 3190,
      "৬৩": 3191,
      "স্বরূপ": 3192,
      "দেখলাম": 3193,
      "ফেব্র": 3194,
      "নায়ক": 3195,
      "আটক": 3196,
      "হাদি": 3197,
      "নারীর": 3198,
      "রোববার": 3199,
      "িন": 3200,
      "ধানে": 3201,
      "চাপা": 3202,
      "ধিকার": 3203,
      "হারে": 3204,
      "হ্য": 3205,
      "মাঠ": 3206,
      "চর্": 3207,
      "ইহু": 3208,
      "ভীষণ": 3209,
      "সোজা": 3210,
      "কর্তব্য": 3211,
      "কথাই": 3212,
      "দিয়েছিলেন": 3213,
      "ব্ব": 3214,
      "ব্যক্ত": 3215,
      "গঠিত": 3216,
      "রস": 3217,
      "জেনারেল": 3218,
      "চার্": 3219,
      "এপ্রি": 3220,
      "গোলাম": 3221,
      "ঝাঁ": 3222,
      "তারই": 3223,
      "কিভাবে": 3224,
      "মানসিক": 3225,
      "শ্বাস": 3226,
      "ন্টের": 3227,
      "গবেষণা": 3228,
      "লাত": 3229,
      "আদ": 3230,
      "মুহাম্মাদ": 3231,
      "দায়ের": 3232,
      "সরাস": 3233,
      "হাদ": 3234,
      "উত্তে": 3235,
      "সুদ": 3236,
      "বলুন": 3237,
      "পৃথিবীতে": 3238,
      "সন্ধান": 3239,
      "করছিল": 3240,
      "ভিত্তি": 3241,
      "বাস্তবায়": 3242,
      "কাউন্": 3243,
      "আমর": 3244,
      "পাঠানো": 3245,
      "চিয়ে": 3246,
      "ছিলে": 3247,
      "মাইল": 3248,
      "পাকিস্তানের": 3249,
      "চেতন": 3250,
      "রক": 3251,
      "উদ্যোগ": 3252,
      "পাড়া": 3253,
      "কীর": 3254,
      "সরাসরি": 3255,
      "পাট": 3256,
      "পরিচালনা": 3257,
      "যায়নি": 3258,
      "স্ত্রীর": 3259,
      "দপ্ত": 3260,
      "সংশ্লিষ্ট": 3261,
      "চক্র": 3262,
      "ঈদ": 3263,
      "সেপ্টেম্বর": 3264,
      "সেগুলো": 3265,
      "আশ্চর্য": 3266,
      "পেলে": 3267,
      "চলচ্চিত্র": 3268,
      "ন্টা": 3269,
      "ব্যতীত": 3270,
      "ঢাকার": 3271,
      "ধারিত": 3272,
      "বেগ": 3273,
      "পালিয়ে": 3274,
      "দাদা": 3275,
      "অনুরূপ": 3276,
      "সভ্য": 3277,
      "দীড়িয়ে": 3278,
      "নহে": 3279,
      "জাহাজ": 3280,
      "সরিয়ে": 3281,
      "মেয়েদের": 3282,
      "ইঞ্": 3283,
      "স্বামীর": 3284,
      "ভেসে": 3285,
      "শুক্রবার": 3286,
      "বাধ": 3287,
      "তলায়": 3288,
      "অনেকে": 3289,
      "নিষেধ": 3290,
      "চলবে": 3291,
      "দেখেছি": 3292,
      "জানিয়েছেন": 3293,
      "পথের": 3294,
      "গ্রন্": 3295,
      "প্রশ্নের": 3296,
      "বাড়িয়ে": 3297,
      "বিশিষ্ট": 3298,
      "৯৮": 3299,
      "ছুটি": 3300,
      "গঠনের": 3301,
      "ত্তর": 3302,
      "দৃষ্টিতে": 3303,
      "আঙ": 3304,
      "বিদ্রো": 3305,
      "বিপক্ষে": 3306,
      "সক্ষম": 3307,
      "নাহ": 3308,
      "জড়িয়ে": 3309,
      "রই": 3310,
      "জানানো": 3311,
      "মিলি": 3312,
      "ভ্": 3313,
      "হাউ": 3314,
      "সন্ত্রা": 3315,
      "অভিনয়": 3316,
      "জনগণের": 3317,
      "বিদ্যুৎ": 3318,
      "পরিস্থিতি": 3319,
      "আওয়াজ": 3320,
      "ঘাট": 3321,
      "ধর্মের": 3322,
      "কৌশল": 3323,
      "আয": 3324,
      "রহস্য": 3325,
      "বাংলার": 3326,
      "ডিসেম্বর": 3327,
      "এসেছি": 3328,
      "সড়ক": 3329,
      "স্বরে": 3330,
      "মজ": 3331,
      "কমিটি": 3332,
      "সমালো": 3333,
      "ড্রা": 3334,
      "মাহমু": 3335,
      "নারায়": 3336,
      "্বে": 3337,
      "হওয়ায়": 3338,
      "অনুভব": 3339,
      "পাখি": 3340,
      "কর্মী": 3341,
      "প্রণ": 3342,
      "সমূহের": 3343,
      "ওয়ার্": 3344,
      "৯১": 3345,
      "হুম": 3346,
      "ক্ষিপ্ত": 3347,
      "দিয়েছিল": 3348,
      "দারুণ": 3349,
      "জড়িত": 3350,
      "নও": 3351,
      "জ্যো": 3352,
      "বৈধ": 3353,
      "তাকাল": 3354,
      "গণ্য": 3355,
      "ওয়ার্ড": 3356,
      "পরাজ": 3357,
      "আদর্শ": 3358,
      "ভাবতে": 3359,
      "সংক্রান্ত": 3360,
      "জরি": 3361,
      "জুড়ে": 3362,
      "তলা": 3363,
      "অ্যান্ড": 3364,
      "বিনিয়োগ": 3365,
      "সিংহ": 3366,
      "অফিস": 3367,
      "সন্ধ্যা": 3368,
      "পাহাড়": 3369,
      "টল": 3370,
      "উচ্চার": 3371,
      "জন্ত": 3372,
      "ক্ষর": 3373,
      "চারী": 3374,
      "সেল": 3375,
      "গ্রস্ত": 3376,
      "আকর্": 3377,
      "গেলো": 3378,
      "বিদায়": 3379,
      "সাহস": 3380,
      "কারণেই": 3381,
      "সামনের": 3382,
      "ধন্য": 3383,
      "কবর": 3384,
      "সহকারী": 3385,
      "সবাইকে": 3386,
      "কিতা": 3387,
      "হৃত": 3388,
      "দিলাম": 3389,
      "চালিত": 3390,
      "গুল": 3391,
      "শৈ": 3392,
      "রোধ": 3393,
      "তাড়ি": 3394,
      "প্রসঙ্গে": 3395,
      "শত্র": 3396,
      "আলি": 3397,
      "জার্মান": 3398,
      "কোন্": 3399,
      "চাম": 3400,
      "ভ্রা": 3401,
      "ব্ধ": 3402,
      "ছিয়ে": 3403,
      "ভাড়া": 3404,
      "সর্বোচ্চ": 3405,
      "ন্দন": 3406,
      "বেলায়": 3407,
      "উহা": 3408,
      "ভের": 3409,
      "জোরে": 3410,
      "শ্বরের": 3411,
      "পন্ন": 3412,
      "ত্যার": 3413,
      "আসিয়া": 3414,
      "গরম": 3415,
      "পুরুষের": 3416,
      "লাগছে": 3417,
      "িকার": 3418,
      "পরেই": 3419,
      "সাজ": 3420,
      "মেডি": 3421,
      "য়ারের": 3422,
      "বোধহয়": 3423,
      "দীপ": 3424,
      "মুমিন": 3425,
      "অফিসার": 3426,
      "বিয়ের": 3427,
      "এইচ": 3428,
      "করিল": 3429,
      "এলেন": 3430,
      "ফেরে": 3431,
      "অনুবাদ": 3432,
      "প্রশংসা": 3433,
      "করেননি": 3434,
      "ভূতি": 3435,
      "দেবী": 3436,
      "পিয়ে": 3437,
      "মক": 3438,
      "ূপে": 3439,
      "শিখ": 3440,
      "দাড়িয়ে": 3441,
      "বলেছিল": 3442,
      "ভিত্তিতে": 3443,
      "আর্থ": 3444,
      "অভিযান": 3445,
      "বর্ষ": 3446,
      "ভেদ": 3447,
      "নাটক": 3448,
      "পারল": 3449,
      "থেমে": 3450,
      "শ্রম": 3451,
      "দক্ষ": 3452,
      "তিহাসি": 3453,
      "সংসদ": 3454,
      "এসো": 3455,
      "ঘৃ": 3456,
      "দাউদ": 3457,
      "বলব": 3458,
      "মাতা": 3459,
      "্ন": 3460,
      "হাব": 3461,
      "লিকা": 3462,
      "ন্টার": 3463,
      "প্রভৃতি": 3464,
      "সহি": 3465,
      "স্মৃতি": 3466,
      "তীব্র": 3467,
      "প্রভা": 3468,
      "কৃষি": 3469,
      "বিমান": 3470,
      "পাত্র": 3471,
      "কুকুর": 3472,
      "পারছি": 3473,
      "প্লে": 3474,
      "লান": 3475,
      "বাসায়": 3476,
      "পার্থক্য": 3477,
      "আগস্ট": 3478,
      "উজ্": 3479,
      "যুগের": 3480,
      "নির্বাহী": 3481,
      "দুনিয়ার": 3482,
      "৫১": 3483,
      "এও": 3484,
      "বুকের": 3485,
      "বাতিল": 3486,
      "কঠোর": 3487,
      "গোলা": 3488,
      "হিসাব": 3489,
      "পড়ছে": 3490,
      "নির্বাচিত": 3491,
      "খেলে": 3492,
      "উৎস": 3493,
      "বারো": 3494,
      "পরম": 3495,
      "ময়ে": 3496,
      "ক্রী": 3497,
      "বিখ্যাত": 3498,
      "প্রতী": 3499,
      "করিয়াছেন": 3500,
      "অভাব": 3501,
      "হচ্ছিল": 3502,
      "চরম": 3503,
      "কয়": 3504,
      "নজর": 3505,
      "প্রযুক্তি": 3506,
      "ওলানা": 3507,
      "তুলনায়": 3508,
      "উদাহ": 3509,
      "কর্ড": 3510,
      "স্থল": 3511,
      "কেহ": 3512,
      "সত্যিই": 3513,
      "লঙ্": 3514,
      "ওঠ": 3515,
      "দকে": 3516,
      "অত্যা": 3517,
      "দারি": 3518,
      "সুন্না": 3519,
      "মামলার": 3520,
      "ককে": 3521,
      "মূর্তি": 3522,
      "হ্যাঁ": 3523,
      "বাহিত": 3524,
      "শক্তির": 3525,
      "জ্বল": 3526,
      "স্থলে": 3527,
      "করবার": 3528,
      "স্বার্থ": 3529,
      "পদ্": 3530,
      "মিলিয়ে": 3531,
      "ঢো": 3532,
      "মহাস": 3533,
      "ন্টে": 3534,
      "তাক": 3535,
      "ক্রিকেট": 3536,
      "নৈ": 3537,
      "সম্ভবত": 3538,
      "শতাব্": 3539,
      "ন্দ্রনাথ": 3540,
      "বিষয়ক": 3541,
      "ইউনিয়নের": 3542,
      "আসামি": 3543,
      "তাড়াতাড়ি": 3544,
      "টেবি": 3545,
      "সাক্ষ্য": 3546,
      "এসেছেন": 3547,
      "আব্বাস": 3548,
      "সই": 3549,
      "ঙ্খ": 3550,
      "ণ্য": 3551,
      "আয়ো": 3552,
      "অধ্য": 3553,
      "৮৮০": 3554,
      "ান্ত্রিক": 3555,
      "এসেছিল": 3556,
      "৯৪": 3557,
      "পারলে": 3558,
      "নির্ধারণ": 3559,
      "টকে": 3560,
      "রবি": 3561,
      "দেহে": 3562,
      "নির্যা": 3563,
      "স্পে": 3564,
      "প্রক্রিয়া": 3565,
      "বন্ত": 3566,
      "রোজ": 3567,
      "ঢুক": 3568,
      "পুরি": 3569,
      "প্রচণ্ড": 3570,
      "থাকলেও": 3571,
      "হত্যার": 3572,
      "উৎসব": 3573,
      "অবলম্ব": 3574,
      "পুনরায়": 3575,
      "হবেন": 3576,
      "জানুয়ারি": 3577,
      "য়েন্টি": 3578,
      "দুপুরে": 3579,
      "রাজ্যের": 3580,
      "খোঁজ": 3581,
      "পৃষ্ঠা": 3582,
      "মণি": 3583,
      "হাতি": 3584,
      "অহ": 3585,
      "এপ্রিল": 3586,
      "্যান্": 3587,
      "বৈশিষ্ট": 3588,
      "উদাহরণ": 3589,
      "জবা": 3590,
      "ইউনিয়ন": 3591,
      "আলার": 3592,
      "৫৪": 3593,
      "ার্": 3594,
      "কিছুতেই": 3595,
      "নাক": 3596,
      "স্বয়ং": 3597,
      "বন্ধন": 3598,
      "আদালতে": 3599,
      "দায়িত": 3600,
      "মাটিতে": 3601,
      "রাজনীতি": 3602,
      "পুঁ": 3603,
      "নিয়ন্ত্রণ": 3604,
      "কিনে": 3605,
      "যুবক": 3606,
      "আছ": 3607,
      "ড়ান্ত": 3608,
      "নির্ধারিত": 3609,
      "গন": 3610,
      "সেস": 3611,
      "গায়": 3612,
      "শীর্ষ": 3613,
      "অন্যায়": 3614,
      "িং": 3615,
      "করীম": 3616,
      "সম্ভাবনা": 3617,
      "বানিয়ে": 3618,
      "নীচে": 3619,
      "ধব": 3620,
      "বেশে": 3621,
      "হুকুম": 3622,
      "স্পর্শ": 3623,
      "কাহিনী": 3624,
      "বেশির": 3625,
      "যাচ্ছি": 3626,
      "চাও": 3627,
      "বাঘ": 3628,
      "পরিষদের": 3629,
      "নীতির": 3630,
      "বিনো": 3631,
      "সচিব": 3632,
      "শক্তিশালী": 3633,
      "খালেদা": 3634,
      "মদী": 3635,
      "অনুরোধ": 3636,
      "ঝে": 3637,
      "হৃদয়": 3638,
      "সাগর": 3639,
      "কাই": 3640,
      "পন্": 3641,
      "অনেকেই": 3642,
      "কাছি": 3643,
      "দেখলে": 3644,
      "অতিথি": 3645,
      "অর্থনীতি": 3646,
      "সাগ": 3647,
      "মিশ": 3648,
      "নিষ্": 3649,
      "বেঁধে": 3650,
      "ফ্রান্": 3651,
      "আইনের": 3652,
      "ঞ্জা": 3653,
      "আনতে": 3654,
      "ঞ্চলের": 3655,
      "আঃ": 3656,
      "টেক": 3657,
      "ওসি": 3658,
      "বিয়া": 3659,
      "(),": 3660,
      "বেগম": 3661,
      "অসম্ভব": 3662,
      "বিডি": 3663,
      "প্রচুর": 3664,
      "শব্দে": 3665,
      "সকলেই": 3666,
      "রাঁ": 3667,
      "দ্দি": 3668,
      "০১০": 3669,
      "বেড়া": 3670,
      "কাছা": 3671,
      "বালা": 3672,
      "চুরি": 3673,
      "সোনার": 3674,
      "শাদ": 3675,
      "পাল্": 3676,
      "সর্বা": 3677,
      "||": 3678,
      "আকর্ষণ": 3679,
      "নিয়মিত": 3680,
      "মন্ত্রীর": 3681,
      "দেবার": 3682,
      "আমাদেরকে": 3683,
      "থানায়": 3684,
      "শিল্পী": 3685,
      "রেখেছে": 3686,
      "খেলো": 3687,
      "ফুর": 3688,
      "যোদ্ধা": 3689,
      "তিহাসিক": 3690,
      "একাধিক": 3691,
      "থাকায়": 3692,
      "য়দ": 3693,
      "প্রতিদিন": 3694,
      "টেন": 3695,
      "তালিকা": 3696,
      "কানা": 3697,
      "আমায়": 3698,
      "নিউজ": 3699,
      "শূন্য": 3700,
      "কণ্ঠে": 3701,
      "নিষি": 3702,
      "ান্তি": 3703,
      "পোরে": 3704,
      "গাই": 3705,
      "বকর": 3706,
      "ঙ্কর": 3707,
      "শাখা": 3708,
      "চেত": 3709,
      "অন্যদিকে": 3710,
      "বয়সে": 3711,
      "অদ্ভুত": 3712,
      "পৃথক": 3713,
      "ড়ানো": 3714,
      "বিলা": 3715,
      "সংস্কার": 3716,
      "ডাকা": 3717,
      "জ্ব": 3718,
      "কোম্পানি": 3719,
      "চৈ": 3720,
      "দনের": 3721,
      "সমাজে": 3722,
      "বিদ্যা": 3723,
      "পারছে": 3724,
      "দাত": 3725,
      "ব্রিটিশ": 3726,
      "রীতি": 3727,
      "মাটির": 3728,
      "যেভাবে": 3729,
      "পৌঁছে": 3730,
      "ডট": 3731,
      "দিকের": 3732,
      "বিপ্ল": 3733,
      "রাজার": 3734,
      "শ্রেণীর": 3735,
      "সুলতান": 3736,
      "দর্শক": 3737,
      "নেবে": 3738,
      "ড়তে": 3739,
      "সঙ্গী": 3740,
      "নীয়": 3741,
      "কোর্": 3742,
      "৬০০": 3743,
      "ধর্মীয়": 3744,
      "মিস": 3745,
      "ড্ড": 3746,
      "চতুর্থ": 3747,
      "ওষু": 3748,
      "ভিয়ে": 3749,
      "জর্": 3750,
      "অবর": 3751,
      "তোলা": 3752,
      "গ্রি": 3753,
      "দাঁড়া": 3754,
      "ঘোড়া": 3755,
      "ভাস": 3756,
      "জ্জামান": 3757,
      "ঢাকায়": 3758,
      "নভেম্বর": 3759,
      "আত্মীয়": 3760,
      "াই": 3761,
      "এতো": 3762,
      "দেহের": 3763,
      "চাইতে": 3764,
      "প্রমুখ": 3765,
      "ক্ল": 3766,
      "অর্থে": 3767,
      "প্রদর্শন": 3768,
      "বারবার": 3769,
      "নক": 3770,
      "ভার্": 3771,
      "আয়াতে": 3772,
      "উৎপাদন": 3773,
      "মন্": 3774,
      "অবশেষে": 3775,
      "মহারা": 3776,
      "দুজনের": 3777,
      "জাগ": 3778,
      "মূলত": 3779,
      "শাহী": 3780,
      "৩০০": 3781,
      "বনের": 3782,
      "ছাই": 3783,
      "মামা": 3784,
      "টাল": 3785,
      "আলোর": 3786,
      "বন্দী": 3787,
      "মতন": 3788,
      "ব্রে": 3789,
      "ব্যবহৃত": 3790,
      "দেখছি": 3791,
      "অস্ট্রে": 3792,
      "ওয়াল": 3793,
      "নিষিদ্ধ": 3794,
      "ভিত্তিক": 3795,
      "লাগবে": 3796,
      "বিদ্য": 3797,
      "গ্রহণের": 3798,
      "শুনেছি": 3799,
      "বিদ্": 3800,
      "সংযোগ": 3801,
      "টী": 3802,
      "অনুসারে": 3803,
      "সম্প্রতি": 3804,
      "৫৬": 3805,
      "বাড়ী": 3806,
      "টিত": 3807,
      "ইবাদ": 3808,
      "নেক": 3809,
      "নাশ": 3810,
      "পয়সা": 3811,
      "তাছাড়া": 3812,
      "প্রবল": 3813,
      "জিতে": 3814,
      "সন্তু": 3815,
      "ইঙ্গ": 3816,
      "সল": 3817,
      "৫৩": 3818,
      "বাঙালি": 3819,
      "তিনিই": 3820,
      "জেলায়": 3821,
      "পূরণ": 3822,
      "শিব": 3823,
      "প্রমাণিত": 3824,
      "হিজ": 3825,
      "সাহেবের": 3826,
      "টিভি": 3827,
      "হাদীসের": 3828,
      "রাও": 3829,
      "পশু": 3830,
      "আম্": 3831,
      "তত্ত": 3832,
      "অনুমো": 3833,
      "শব্দের": 3834,
      "নির্বাচনের": 3835,
      "কুরআনের": 3836,
      "ছবির": 3837,
      "পাব": 3838,
      "দ্যা": 3839,
      "কর্মসূচি": 3840,
      "গোয়ে": 3841,
      "শ্রেণী": 3842,
      "মারি": 3843,
      "মোহন": 3844,
      "পন্থ": 3845,
      "আটকে": 3846,
      "প্রত্যক্ষ": 3847,
      "বানা": 3848,
      "লোকটি": 3849,
      "সম্মেলনে": 3850,
      "ফেলা": 3851,
      "বাপ": 3852,
      "ণু": 3853,
      "পরও": 3854,
      "োপ": 3855,
      "তবুও": 3856,
      "অবৈ": 3857,
      "কাছাকাছি": 3858,
      "ঈশ্বরের": 3859,
      "মায়া": 3860,
      "প্রকৃতি": 3861,
      "তাহ": 3862,
      "খিল": 3863,
      "মেয়": 3864,
      "জাহান্": 3865,
      "বসা": 3866,
      "বিসি": 3867,
      "নিন": 3868,
      "রঙের": 3869,
      "ব্রাহ্ম": 3870,
      "মধু": 3871,
      "করায়": 3872,
      "সাক্ষাৎ": 3873,
      "বতী": 3874,
      "অগ্নি": 3875,
      "গমন": 3876,
      "অব্যা": 3877,
      "থু": 3878,
      "সবকিছু": 3879,
      "ম্যাচে": 3880,
      "দিয়েছি": 3881,
      "সংস্কৃতি": 3882,
      "পাবেন": 3883,
      "প্লা": 3884,
      "মস্ত": 3885,
      "যাবেন": 3886,
      "কাঠা": 3887,
      "জায়ে": 3888,
      "নেট": 3889,
      "ব্যথা": 3890,
      "সমন্": 3891,
      "আয়ে": 3892,
      "সবুজ": 3893,
      "আ্যা": 3894,
      "ইজ": 3895,
      "শিক্ষণ": 3896,
      "ঘটেছে": 3897,
      "সাধারণত": 3898,
      "বিড়": 3899,
      "দাবী": 3900,
      "শিরো": 3901,
      "অঞ্চলে": 3902,
      "ওঁ": 3903,
      "সাফল": 3904,
      "লীল": 3905,
      "করবো": 3906,
      "বাসের": 3907,
      "বর্ধ": 3908,
      "হয়ত": 3909,
      "শাম": 3910,
      "চূড়ান্ত": 3911,
      "কৃষ্ট": 3912,
      "দরজার": 3913,
      "কান্": 3914,
      "কমান": 3915,
      "আন্দোলনের": 3916,
      "মালি": 3917,
      "োক্ত": 3918,
      "হাসিনা": 3919,
      "নারায়ণ": 3920,
      "সহ্য": 3921,
      "লিখেছেন": 3922,
      "বারা": 3923,
      "জনগণ": 3924,
      "বিস্ত": 3925,
      "ফায়": 3926,
      "রক্ষণ": 3927,
      "ষিত": 3928,
      "গাল": 3929,
      "তাআলার": 3930,
      "মোর": 3931,
      "সাম্": 3932,
      "তেল": 3933,
      "প্রেরণ": 3934,
      "নেল": 3935,
      "বুড়ো": 3936,
      "ছুঁ": 3937,
      "চারটি": 3938,
      "পাগল": 3939,
      "প্রাণী": 3940,
      "মেডিকেল": 3941,
      "ণ্ডা": 3942,
      "ফুটে": 3943,
      "কপা": 3944,
      "পরই": 3945,
      "ক্রু": 3946,
      "প্রশাস": 3947,
      "বান্দা": 3948,
      "ভাগে": 3949,
      "কিতাব": 3950,
      "অসুস্থ": 3951,
      "প্রচলিত": 3952,
      "অধিকারী": 3953,
      "জীবিত": 3954,
      "বিকেলে": 3955,
      "মাংস": 3956,
      "কিউ": 3957,
      "কার্যকর": 3958,
      "সফ": 3959,
      "ভারতে": 3960,
      "শপথ": 3961,
      "জরুরি": 3962,
      "মশাই": 3963,
      "বিচ্ছি": 3964,
      "লাহ": 3965,
      "ম্পি": 3966,
      "সৈয়দ": 3967,
      "সালাত": 3968,
      "সহায়তা": 3969,
      "করিলে": 3970,
      "কার্যক্রম": 3971,
      "ভবন": 3972,
      "আপত্তি": 3973,
      "পাচ": 3974,
      "তিরমি": 3975,
      "সাম্রা": 3976,
      "গত্য": 3977,
      "লাভের": 3978,
      "ষী": 3979,
      "কিম": 3980,
      "আপা": 3981,
      "মুখী": 3982,
      "গানের": 3983,
      "টানা": 3984,
      "দশমিক": 3985,
      "টোয়েন্টি": 3986,
      "কিছুর": 3987,
      "দেরি": 3988,
      "সেসব": 3989,
      "কর্তৃপক্ষ": 3990,
      "ভারী": 3991,
      "লস": 3992,
      "ারি": 3993,
      "ফরা": 3994,
      "মরি": 3995,
      "আলাপ": 3996,
      "৪০০": 3997,
      "বেত": 3998,
      "খেলোয়া": 3999,
      "মাওলানা": 4000,
      "শিক": 4001,
      "বাইরের": 4002,
      "ফেলল": 4003,
      "তারে": 4004,
      "ভরা": 4005,
      "থেকেও": 4006,
      "শেয়ার": 4007,
      "পিউ": 4008,
      "আজকের": 4009,
      "একসঙ্গে": 4010,
      "মুখি": 4011,
      "উপদেশ": 4012,
      "কাব্য": 4013,
      "পাচ্ছে": 4014,
      "অনেকটা": 4015,
      "ষ্ঠান": 4016,
      "অঞ্চল": 4017,
      "ফেব্রুয়ারি": 4018,
      "উত্": 4019,
      "তখনও": 4020,
      "প্রতিষ্ঠানের": 4021,
      "অবৈধ": 4022,
      "উর্": 4023,
      "জগতের": 4024,
      "এছাড়া": 4025,
      "ফাত": 4026,
      "জয়ের": 4027,
      "খৃ": 4028,
      "অন্তর": 4029,
      "ওমর": 4030,
      "সেও": 4031,
      "সংখ্যক": 4032,
      "নিয়েছেন": 4033,
      "স্বর্ণ": 4034,
      "বিবরণ": 4035,
      "উল্লেখযোগ্য": 4036,
      "সনা": 4037,
      "টিয়া": 4038,
      "ধরতে": 4039,
      "জনপ্রিয়": 4040,
      "বিবেচনা": 4041,
      "পদার": 4042,
      "ভাঙা": 4043,
      "সুফ": 4044,
      "টিন": 4045,
      "ক্ষুদ্র": 4046,
      "শয়তান": 4047,
      "কাকে": 4048,
      "চেনা": 4049,
      "উন্নত": 4050,
      "৪২": 4051,
      "হৃদ": 4052,
      "মাস্টার": 4053,
      "রাক": 4054,
      "সাহাবী": 4055,
      "ক্সি": 4056,
      "সচেতন": 4057,
      "তব": 4058,
      "মাত্রা": 4059,
      "উপন্যা": 4060,
      "খেলার": 4061,
      "মতোই": 4062,
      "কলকাতা": 4063,
      "গ্ড": 4064,
      "মেয়া": 4065,
      "ুম": 4066,
      "ধায়": 4067,
      "ধৈ": 4068,
      "যেকোনো": 4069,
      "পুরোপুরি": 4070,
      "কোচ": 4071,
      "রেকর্ড": 4072,
      "মিলিত": 4073,
      "জুল": 4074,
      "প্রেস": 4075,
      "ওভার": 4076,
      "টাতে": 4077,
      "জোড়া": 4078,
      "ভাষার": 4079,
      "হানা": 4080,
      "শরীরে": 4081,
      "সকলে": 4082,
      "আফ্রি": 4083,
      "নম": 4084,
      "চার্য": 4085,
      "মামলায়": 4086,
      "দোয়া": 4087,
      "ঞ্চিত": 4088,
      "সাড়া": 4089,
      "সুরে": 4090,
      "রান্না": 4091,
      "করতো": 4092,
      "বিপুল": 4093,
      "থাকত": 4094,
      "কিছুদিন": 4095,
      "১৮০": 4096,
      "লক্ষ্যে": 4097,
      "দুধ": 4098,
      "ওয়ালা": 4099,
      "কার্ড": 4100,
      "জলের": 4101,
      "শব": 4102,
      "রাজধানীর": 4103,
      "সকে": 4104,
      "অপারে": 4105,
      "্যান্ট": 4106,
      "ছোট্ট": 4107,
      "উমর": 4108,
      "অসংখ্য": 4109,
      "জানিয়েছে": 4110,
      "পাপা": 4111,
      "িকভাবে": 4112,
      "চ্ছন্ন": 4113,
      "লক্ষণ": 4114,
      "ভোর": 4115,
      "কিলো": 4116,
      "খানিকটা": 4117,
      "প্রজা": 4118,
      "ভয়ের": 4119,
      "খের": 4120,
      "ভান": 4121,
      "ফর্": 4122,
      "৯৭": 4123,
      "হণ": 4124,
      "পিতার": 4125,
      "নামিয়ে": 4126,
      "বর্তন": 4127,
      "রাস্তার": 4128,
      "বিন্দু": 4129,
      "চীন": 4130,
      "চুর": 4131,
      "আজি": 4132,
      "ভৌ": 4133,
      "েও": 4134,
      "করিয়": 4135,
      "যৌন": 4136,
      "টতে": 4137,
      "মাঁ": 4138,
      "রাখেন": 4139,
      "করলেও": 4140,
      "দনে": 4141,
      "কাদের": 4142,
      "ফলা": 4143,
      "ভাত": 4144,
      "গাড়ির": 4145,
      "বারান্": 4146,
      "টেস্ট": 4147,
      "পেয়েছেন": 4148,
      "করিবার": 4149,
      "নিরাপদ": 4150,
      "বাসার": 4151,
      "শনার": 4152,
      "ড্র": 4153,
      "শরীরের": 4154,
      "মাক": 4155,
      "কংগ্রে": 4156,
      "বাজারের": 4157,
      "ছুই": 4158,
      "ইংরেজ": 4159,
      "ইসরা": 4160,
      "উইকেট": 4161,
      "লুক": 4162,
      "তায়ালা": 4163,
      "জেগে": 4164,
      "ডেস্ক": 4165,
      "ঋণ": 4166,
      "ব্যক্তিদের": 4167,
      "পেশা": 4168,
      "বিদ্যালয়": 4169,
      "অতী": 4170,
      "কামনা": 4171,
      "শিক্ষার": 4172,
      "যিহো": 4173,
      "ধ্যায়": 4174,
      "মাঝখানে": 4175,
      "যাপন": 4176,
      "পরিস্থি": 4177,
      "ব্যক্তিকে": 4178,
      "অবলম্বন": 4179,
      "গ্রন্থে": 4180,
      "ফেরা": 4181,
      "লাগলেন": 4182,
      "উপলক্ষে": 4183,
      "অস্তিত্ব": 4184,
      "পাতি": 4185,
      "ক্ষোভ": 4186,
      "দুআ": 4187,
      "বৎসর": 4188,
      "কায়ে": 4189,
      "পনে": 4190,
      "নকে": 4191,
      "মোবাই": 4192,
      "লাগলো": 4193,
      "সাধন": 4194,
      "ভারপ্রাপ্ত": 4195,
      "পাথরের": 4196,
      "জটিল": 4197,
      "যাচ্ছিল": 4198,
      "শুক": 4199,
      "যুক্তরাষ্ট্রের": 4200,
      "প্রশিক্ষণ": 4201,
      "প্রতিবেদন": 4202,
      "অধী": 4203,
      "মোকা": 4204,
      "উঁ": 4205,
      "ফেরত": 4206,
      "লজ্জা": 4207,
      "খেয়াল": 4208,
      "ডেল": 4209,
      "কৈ": 4210,
      "স্বভাব": 4211,
      "সরল": 4212,
      "নিম্ন": 4213,
      "সুপার": 4214,
      "ষ্য": 4215,
      "ত্মক": 4216,
      "পত": 4217,
      "বলেছি": 4218,
      "পরিপূর্ণ": 4219,
      "পয়েন্ট": 4220,
      "নিং": 4221,
      "র্গ": 4222,
      "কলেজের": 4223,
      "ম্ভ": 4224,
      "কাফের": 4225,
      "সাঃ": 4226,
      "বিশ্লে": 4227,
      "অন্ধকারে": 4228,
      "পেলাম": 4229,
      "সাধ্য": 4230,
      "ইহ": 4231,
      "হীম": 4232,
      "দিয়েই": 4233,
      "লুকিয়ে": 4234,
      "দানে": 4235,
      "গুন": 4236,
      "তারিখে": 4237,
      "এগো": 4238,
      "দিগের": 4239,
      "বিকাশ": 4240,
      "বিদ্যমান": 4241,
      "সিগারে": 4242,
      "সিন": 4243,
      "কড়া": 4244,
      "টার্": 4245,
      "রপ্ত": 4246,
      "গভ": 4247,
      "অভিজ্ঞতা": 4248,
      "ইক": 4249,
      "রাহ": 4250,
      "সৃষ্টির": 4251,
      "৭৭": 4252,
      "উত্তরা": 4253,
      "ড়ী": 4254,
      "ড়িয়া": 4255,
      "কমিশন": 4256,
      "আনুগত্য": 4257,
      "উচু": 4258,
      "দানি": 4259,
      "করেছিলাম": 4260,
      "যাত্রী": 4261,
      "চমকে": 4262,
      "মুক": 4263,
      "কর্মকর্ত": 4264,
      "দুপুর": 4265,
      "বিদেশ": 4266,
      "মুখোমুখি": 4267,
      "বন্ধুর": 4268,
      "পোষণ": 4269,
      "আরেকটি": 4270,
      "অফ": 4271,
      "সিঁ": 4272,
      "ক্ষেত্র": 4273,
      "তুলতে": 4274,
      "রানার": 4275,
      "ধন্যবাদ": 4276,
      "হীত": 4277,
      "অংশগ্রহণ": 4278,
      "দেখিয়া": 4279,
      "টেড": 4280,
      "শৃঙ্খ": 4281,
      "কক্ষ": 4282,
      "বেড়েছে": 4283,
      "লিউ": 4284,
      "উচ্চারণ": 4285,
      "বৈশিষ্ট্য": 4286,
      "নত": 4287,
      "কব": 4288,
      "খানের": 4289,
      "প্রস্তুতি": 4290,
      "রাজনী": 4291,
      "উঠলো": 4292,
      "জ্ঞাত": 4293,
      "মাহমুদ": 4294,
      "তান্ত্রিক": 4295,
      "সহযোগিতা": 4296,
      "বুঝা": 4297,
      "অন্তর্ভুক্ত": 4298,
      "মসজিদ": 4299,
      "স্থানের": 4300,
      "বিষয়ের": 4301,
      "বলিতে": 4302,
      "কথাও": 4303,
      "ব্যাপী": 4304,
      "গীর": 4305,
      "লীর": 4306,
      "ঁটে": 4307,
      "মেন": 4308,
      "জেন": 4309,
      "ক্রিয়": 4310,
      "চিত্ত": 4311,
      "দিবস": 4312,
      "দূত": 4313,
      "ডটকম": 4314,
      "জেল": 4315,
      "বিস্তারিত": 4316,
      "নিযুক্ত": 4317,
      "ঘিরে": 4318,
      "কবির": 4319,
      "শনাল": 4320,
      "লেনদেন": 4321,
      "আর্থিক": 4322,
      "মও": 4323,
      "দৃষ্ট": 4324,
      "নাজ": 4325,
      "পারত": 4326,
      "কারীর": 4327,
      "কর্ণ": 4328,
      "গোয়েন্দা": 4329,
      "নিয়েই": 4330,
      "চেয়েও": 4331,
      "ষিক": 4332,
      "কামাল": 4333,
      "পরিষদ": 4334,
      "অবস্থার": 4335,
      "বেরো": 4336,
      "লেখার": 4337,
      "আহমাদ": 4338,
      "লিপ্ত": 4339,
      "ঁয়া": 4340,
      "ইতিমধ্যে": 4341,
      "অন্যের": 4342,
      "পুনর্": 4343,
      "বর্গ": 4344,
      "বসল": 4345,
      "মিত্র": 4346,
      "অগ্রসর": 4347,
      "পাহাড়ের": 4348,
      "সরবরা": 4349,
      "শ্রদ্ধা": 4350,
      "বোর্ড": 4351,
      "প্রতিবাদ": 4352,
      "কোরআন": 4353,
      "করাই": 4354,
      "ত্বা": 4355,
      "ঠিকই": 4356,
      "ভাইয়ের": 4357,
      "পড়েন": 4358,
      "ঝুঁকি": 4359,
      "মেলে": 4360,
      "নিলেন": 4361,
      "শাস্ত": 4362,
      "উত্তরে": 4363,
      "পার্টি": 4364,
      "ইউরোপ": 4365,
      "মম": 4366,
      "ফরি": 4367,
      "বিপরীত": 4368,
      "তৈরী": 4369,
      "দিল্": 4370,
      "পৌছ": 4371,
      "নেতৃত্বে": 4372,
      "ইঙ্গিত": 4373,
      "মুশ": 4374,
      "ফ্রে": 4375,
      "কয়েকটা": 4376,
      "আকাশে": 4377,
      "ডিং": 4378,
      "মিঃ": 4379,
      "মতামত": 4380,
      "অবতী": 4381,
      "ব্যাট": 4382,
      "মানিক": 4383,
      "এড": 4384,
      "পরিচালিত": 4385,
      "সম্রা": 4386,
      "রয়েছেন": 4387,
      "তিনজন": 4388,
      "বেসরকারি": 4389,
      "দেড়": 4390,
      "রাসূলুল্লাহ্": 4391,
      "মন্দির": 4392,
      "অতিক্রম": 4393,
      "ব্যবসায়ী": 4394,
      "দাতা": 4395,
      "দিবে": 4396,
      "চিৎ": 4397,
      "ছ্": 4398,
      "দরি": 4399,
      "আবদুর": 4400,
      "সঃ": 4401,
      "ভদ্রলোক": 4402,
      "দারের": 4403,
      "এরই": 4404,
      "স্কুলে": 4405,
      "এয়ার": 4406,
      "ফিলি": 4407,
      "পেন": 4408,
      "কল্পনা": 4409,
      "সৌন্দর": 4410,
      "লুন": 4411,
      "ফুটবল": 4412,
      "জতে": 4413,
      "বিরত": 4414,
      "একক": 4415,
      "কিলোমিটার": 4416,
      "অর্ধে": 4417,
      "চমৎকার": 4418,
      "গাজী": 4419,
      "অপরি": 4420,
      "স্থায়": 4421,
      "নিবে": 4422,
      "কেঁ": 4423,
      "মোটর": 4424,
      "অঞ্চলের": 4425,
      "মদের": 4426,
      "বাতাস": 4427,
      "ওষুধ": 4428,
      "মৌলিক": 4429,
      "কানের": 4430,
      "সফর": 4431,
      "সিস": 4432,
      "স্মার": 4433,
      "উঠলেন": 4434,
      "শোক": 4435,
      "হেল": 4436,
      "বলবেন": 4437,
      "পরিবর্তে": 4438,
      "হেন": 4439,
      "জারি": 4440,
      "৫২": 4441,
      "জবাবে": 4442,
      "বরি": 4443,
      "এইসব": 4444,
      "জজ": 4445,
      "য়াছে": 4446,
      "পেট": 4447,
      "অবতীর্ণ": 4448,
      "পদক্ষেপ": 4449,
      "৯৩": 4450,
      "খাতে": 4451,
      "পেয়েছি": 4452,
      "সাল্লামের": 4453,
      "মাধ্যম": 4454,
      "প্রদর্শ": 4455,
      "রসূলুল্লাহ": 4456,
      "ঞ্চল": 4457,
      "উপযুক্ত": 4458,
      "বাচক": 4459,
      "ফৌ": 4460,
      "ফোনে": 4461,
      "হারের": 4462,
      "প্রভু": 4463,
      "মেয়েটি": 4464,
      "৬২": 4465,
      "প্রযো": 4466,
      "আনি": 4467,
      "হিম": 4468,
      "দ্বন্": 4469,
      "বিদেশি": 4470,
      "বিচ্ছিন্ন": 4471,
      "সন্ধ্যায়": 4472,
      "আজও": 4473,
      "তাৎ": 4474,
      "গঞ্জের": 4475,
      "দিচ্ছি": 4476,
      "সুস্পষ্ট": 4477,
      "স্বীকৃতি": 4478,
      "দ্রব্য": 4479,
      "নাকে": 4480,
      "জ্যোতি": 4481,
      "অনুপ": 4482,
      "সাংস্": 4483,
      "য়েত": 4484,
      "আন্": 4485,
      "আসন": 4486,
      "বাগান": 4487,
      "দেখিতে": 4488,
      "০০৮": 4489,
      "পিউটার": 4490,
      "কিক": 4491,
      "যাকাত": 4492,
      "যাইতে": 4493,
      "ধারাবাহি": 4494,
      "গজ": 4495,
      "লাগিল": 4496,
      "দিলো": 4497,
      "পাকা": 4498,
      "্ডার": 4499,
      "শব্দটি": 4500,
      "নূর": 4501,
      "অনুচ্ছেদ": 4502,
      "অনলাইন": 4503,
      "জাহান": 4504,
      "মজা": 4505,
      "লোর": 4506,
      "নারীদের": 4507,
      "হানি": 4508,
      "বৈঠক": 4509,
      "হয়েছিলেন": 4510,
      "দিই": 4511,
      "খী": 4512,
      "মাত": 4513,
      "একান্ত": 4514,
      "শিক্ষার্থী": 4515,
      "আা": 4516,
      "কিট": 4517,
      "সমস্যার": 4518,
      "আনার": 4519,
      "গণতন্ত্র": 4520,
      "করপোরে": 4521,
      "সুপারি": 4522,
      "জগৎ": 4523,
      "টিউ": 4524,
      "সাবধান": 4525,
      "কাটিয়ে": 4526,
      "ইউসুফ": 4527,
      "মক্": 4528,
      "সংস": 4529,
      "মৌসু": 4530,
      "সুন্দ": 4531,
      "০০৪": 4532,
      "পতির": 4533,
      "একদম": 4534,
      "মারে": 4535,
      "মেরা": 4536,
      "ফোর্": 4537,
      "স্বীয়": 4538,
      "তোমাদেরকে": 4539,
      "শরীয়": 4540,
      "পার্ট": 4541,
      "রসূল": 4542,
      "চড়ে": 4543,
      "লিস": 4544,
      "রাত্রে": 4545,
      "শুনি": 4546,
      "্তু": 4547,
      "লতা": 4548,
      "অভ্যা": 4549,
      "মুঠো": 4550,
      "খাওয়ার": 4551,
      "একদল": 4552,
      "অধীনে": 4553,
      "সভার": 4554,
      "খাই": 4555,
      "শীত": 4556,
      "অশ্": 4557,
      "হাদীসে": 4558,
      "সাংস্কৃতিক": 4559,
      "ন্তে": 4560,
      "রাজধানী": 4561,
      "জগতে": 4562,
      "পিছু": 4563,
      "িয়": 4564,
      "আজা": 4565,
      "সাহায্যে": 4566,
      "পার্টির": 4567,
      "যের": 4568,
      "আগমন": 4569,
      "ধীর": 4570,
      "ডাল": 4571,
      "পরো": 4572,
      "নাড়": 4573,
      "ঁট": 4574,
      "চারা": 4575,
      "কাফির": 4576,
      "জম": 4577,
      "দ্বীপ": 4578,
      "অক্ষ": 4579,
      "কমিশনার": 4580,
      "অঙ্": 4581,
      "নাত": 4582,
      "জ্যে": 4583,
      "মসজিদে": 4584,
      "মোহ": 4585,
      "আহ্": 4586,
      "আনে": 4587,
      "তন্": 4588,
      "পতিত": 4589,
      "স্পি": 4590,
      "ণাম": 4591,
      "ল্পে": 4592,
      "ব্যবস্থাপনা": 4593,
      "বুর": 4594,
      "মিশ্র": 4595,
      "নিক্ষেপ": 4596,
      "বোমা": 4597,
      "হাসতে": 4598,
      "দিব": 4599,
      "কাঁর": 4600,
      "ষ্টে": 4601,
      "সদা": 4602,
      "উক": 4603,
      "বিকেল": 4604,
      "গেট": 4605,
      "বানী": 4606,
      "দায়ী": 4607,
      "পণ্ড": 4608,
      "সন্তানের": 4609,
      "প্রশাসন": 4610,
      "পদার্থ": 4611,
      "আশঙ্কা": 4612,
      "ফিস": 4613,
      "বিরোধ": 4614,
      "প্রয়ো": 4615,
      "ঙ্গার": 4616,
      "এজন্য": 4617,
      "সর্বশেষ": 4618,
      "ত্তার": 4619,
      "প্রায়ই": 4620,
      "খালী": 4621,
      "যেই": 4622,
      "পৌর": 4623,
      "ন্তি": 4624,
      "তৎপর": 4625,
      "সম্প্রদায়ের": 4626,
      "বন্দু": 4627,
      "মুদ্র": 4628,
      "কাকা": 4629,
      "পুকুর": 4630,
      "টুকরো": 4631,
      "ক্যাম্": 4632,
      "শাস্ত্র": 4633,
      "মন্ত্রণালয়ের": 4634,
      "মেয়েরা": 4635,
      "কসম": 4636,
      "সাময়": 4637,
      "ব্রত": 4638,
      "৫০০": 4639,
      "জানার": 4640,
      "রচিত": 4641,
      "ড়ালে": 4642,
      "অনন্ত": 4643,
      "রঃ": 4644,
      "সেনের": 4645,
      "সুই": 4646,
      "ইন্দ্র": 4647,
      "ঞা": 4648,
      "দেখেন": 4649,
      "বসবাস": 4650,
      "হাসল": 4651,
      "হলেই": 4652,
      "জাহিদ": 4653,
      "জঙ্গি": 4654,
      "দেখো": 4655,
      "উপহার": 4656,
      "পঞ্চা": 4657,
      "সেকে": 4658,
      "বিনোদন": 4659,
      "ফেলতে": 4660,
      "পারেননি": 4661,
      "বেছে": 4662,
      "ম্যানে": 4663,
      "লাগিয়ে": 4664,
      "ফেলেছে": 4665,
      "বিডিনিউজ": 4666,
      "পোর্": 4667,
      "রাজশাহী": 4668,
      "পাঠক": 4669,
      "ঞ্জন": 4670,
      "ভিডিও": 4671,
      "খানার": 4672,
      "পরিমা": 4673,
      "শ্চ": 4674,
      "৯৫": 4675,
      "বয়সী": 4676,
      "হজরত": 4677,
      "৯৬": 4678,
      "যতক্ষণ": 4679,
      "ভগবান": 4680,
      "আনো": 4681,
      "তাঁহার": 4682,
      "হব": 4683,
      "নাগা": 4684,
      "সারি": 4685,
      "ভয়া": 4686,
      "ইংল্যান্ড": 4687,
      "ভালোবাসা": 4688,
      "ট্রি": 4689,
      "শত্রু": 4690,
      "আইনজীবী": 4691,
      "আকাশের": 4692,
      "ভাঁ": 4693,
      "করছিলেন": 4694,
      "চ্ছিলেন": 4695,
      "ষণের": 4696,
      "জাতিসংঘ": 4697,
      "ঝড়": 4698,
      "ষার": 4699,
      "কাজী": 4700,
      "সেমি": 4701,
      "সম্মত": 4702,
      "৭১": 4703,
      "ওয়াজিব": 4704,
      "বেই": 4705,
      "চকে": 4706,
      "পল্": 4707,
      "পত্তি": 4708,
      "ষ্টান": 4709,
      "৭৫": 4710,
      "দাগ": 4711,
      "ট্টা": 4712,
      "পেলেন": 4713,
      "শুধুমাত্র": 4714,
      "লোককে": 4715,
      "সম্মেলন": 4716,
      "কারখানা": 4717,
      "কাছেই": 4718,
      "ব্যাগ": 4719,
      "বঙ্গবন্ধু": 4720,
      "কলকাতায়": 4721,
      "সিরাজ": 4722,
      "ষড়": 4723,
      "ভিক্ষু": 4724,
      "থাকু": 4725,
      "কিব": 4726,
      "ব্ল": 4727,
      "উঠছে": 4728,
      "সীমান্ত": 4729,
      "উদ্দেশে": 4730,
      "১০১": 4731,
      "কর্মীদের": 4732,
      "পেরিয়ে": 4733,
      "সমাবেশ": 4734,
      "দাওয়াত": 4735,
      "লিয়ার": 4736,
      "ল্লার": 4737,
      "অত্যাচার": 4738,
      "নিত্য": 4739,
      "মোবাইল": 4740,
      "কুয়া": 4741,
      "সর্বদা": 4742,
      "করতেই": 4743,
      "ক্রা": 4744,
      "রওনা": 4745,
      "মেয়র": 4746,
      "নাঃ": 4747,
      "জিল": 4748,
      "উহার": 4749,
      "ড়িতে": 4750,
      "৭৮": 4751,
      "কম্পিউটার": 4752,
      "সম্পর্কিত": 4753,
      "গৃহীত": 4754,
      "বলতেন": 4755,
      "নামাজ": 4756,
      "ব্যবস্থার": 4757,
      "সনের": 4758,
      "আজকাল": 4759,
      "কালি": 4760,
      "পুস্ত": 4761,
      "তোকে": 4762,
      "নারা": 4763,
      "একত্র": 4764,
      "দ্ব": 4765,
      "পরস্পর": 4766,
      "যাচ্ছেন": 4767,
      "কর্নেল": 4768,
      "মন্ত্রণালয়": 4769,
      "এজে": 4770,
      "বন্দর": 4771,
      "বৌদ্ধ": 4772,
      "মৃদু": 4773,
      "পারো": 4774,
      "তাবে": 4775,
      "দিতেন": 4776,
      "অপমান": 4777,
      "ষ্টার": 4778,
      "ছাপ": 4779,
      "সেতু": 4780,
      "পরিত্যা": 4781,
      "১০৪": 4782,
      "সিম": 4783,
      "কেনা": 4784,
      "ডিএস": 4785,
      "শিক্ষিত": 4786,
      "প্রতিশ্র": 4787,
      "হিক": 4788,
      "সংরক্ষণ": 4789,
      "ংকর": 4790,
      "টোর": 4791,
      "আবারও": 4792,
      "চিনি": 4793,
      "বিনিময়ে": 4794,
      "অফিসে": 4795,
      "পরদিন": 4796,
      "হালকা": 4797,
      "পেছন": 4798,
      "পলি": 4799,
      "রাশি": 4800,
      "শালা": 4801,
      "ট্রেন": 4802,
      "পৃঃ": 4803,
      "ব্রাহ্মণ": 4804,
      "দেখানো": 4805,
      "বার্ষিক": 4806,
      "এইরূপ": 4807,
      "হাদিস": 4808,
      "উন্নয়": 4809,
      "ফেস": 4810,
      "গান্": 4811,
      "ইতিহাসের": 4812,
      "বঞ্চিত": 4813,
      "কতক": 4814,
      "চলো": 4815,
      "সাধু": 4816,
      "সেটাই": 4817,
      "পড়লে": 4818,
      "গার্ড": 4819,
      "৪৪৪৪": 4820,
      "বৈঠকে": 4821,
      "ত্তির": 4822,
      "স্বে": 4823,
      "উজ্জ্বল": 4824,
      "ভিন": 4825,
      "আবিষ্কার": 4826,
      "হাদীসটি": 4827,
      "নিচু": 4828,
      "সাংসদ": 4829,
      "চিকিৎসক": 4830,
      "নিচের": 4831,
      "পরীক্ষার": 4832,
      "মনোযোগ": 4833,
      "করেও": 4834,
      "বায়ু": 4835,
      "সাক্ষী": 4836,
      "সন্ন": 4837,
      "কমিউনি": 4838,
      "ভ্রান্ত": 4839,
      "বাড়া": 4840,
      "বিনিময়": 4841,
      "প্রবন্ধ": 4842,
      "থানা": 4843,
      "অব্যাহত": 4844,
      "খেলোয়াড়": 4845,
      "গাড়িতে": 4846,
      "৮২": 4847,
      "ক্ষমতার": 4848,
      "পাও": 4849,
      "মুজিব": 4850,
      "বাহা": 4851,
      "কৃতজ্ঞ": 4852,
      "চিহ্ন": 4853,
      "টারি": 4854,
      "সমৃ": 4855,
      "সম্প্রদায়": 4856,
      "সীম": 4857,
      "উদ্দীন": 4858,
      "জলা": 4859,
      "ফার্": 4860,
      "অবিশ্বাস": 4861,
      "বিরক্ত": 4862,
      "ব্যতি": 4863,
      "কও": 4864,
      "যাঁদ": 4865,
      "অস্থির": 4866,
      "সংগীত": 4867,
      "পন্থী": 4868,
      "যুক্তরাষ্ট্র": 4869,
      "অনুভূতি": 4870,
      "সাইন": 4871,
      "ক্ষী": 4872,
      "মাতৃ": 4873,
      "মঞ্": 4874,
      "ভন": 4875,
      "সমী": 4876,
      "তালে": 4877,
      "সংগঠনের": 4878,
      "প্রতিপাল": 4879,
      "সূর": 4880,
      "মেয়েকে": 4881,
      "ইবাদত": 4882,
      "আগা": 4883,
      "অর": 4884,
      "নাঁ": 4885,
      "অনুমোদন": 4886,
      "চলতি": 4887,
      "রবীন্দ্রনাথ": 4888,
      "লন্ড": 4889,
      "চেহার": 4890,
      "ষণার": 4891,
      "এমনভাবে": 4892,
      "অন্তরে": 4893,
      "সারী": 4894,
      "জমে": 4895,
      "বাংলাদেশি": 4896,
      "দিদি": 4897,
      "রাখি": 4898,
      "সমালোচনা": 4899,
      "ড্রাই": 4900,
      "শৃঙ্খলা": 4901,
      "থায়": 4902,
      "মাদ্রা": 4903,
      "গরু": 4904,
      "পুরনো": 4905,
      "ভাবের": 4906,
      "সমর্": 4907,
      "খ্যান": 4908,
      "োগে": 4909,
      "গ্ত": 4910,
      "মহিলার": 4911,
      "প্রতিক্রিয়া": 4912,
      "এখানকার": 4913,
      "দেই": 4914,
      "ওয়াব": 4915,
      "চোর": 4916,
      "ধৈর্য": 4917,
      "রাখবে": 4918,
      "লিয়": 4919,
      "শিশুর": 4920,
      "অংশে": 4921,
      "নৌকা": 4922,
      "হাদীছ": 4923,
      "রত্ব": 4924,
      "ব্ধি": 4925,
      "সপ্তাহ": 4926,
      "লাতে": 4927,
      "ভিড়": 4928,
      "জনেই": 4929,
      "১ম": 4930,
      "সিত": 4931,
      "প্রহ": 4932,
      "িকায়": 4933,
      "সূচক": 4934,
      "করণের": 4935,
      "ওলা": 4936,
      "একাডে": 4937,
      "অভ্যন্ত": 4938,
      "ঈদের": 4939,
      "ম্বরে": 4940,
      "আক্রান্ত": 4941,
      "শিক্ষার্থীদের": 4942,
      "জেলে": 4943,
      "গুঁ": 4944,
      "ওঠা": 4945,
      "তাফ": 4946,
      "আলোচনার": 4947,
      "শ্রেণ": 4948,
      "যেটা": 4949,
      "আয়াতের": 4950,
      "অন্যদের": 4951,
      "চাহিদা": 4952,
      "এখনই": 4953,
      "সংবিধান": 4954,
      "অনুমান": 4955,
      "খণ": 4956,
      "ইবরা": 4957,
      "পানিতে": 4958,
      "বিবৃ": 4959,
      "থাকল": 4960,
      "সবে": 4961,
      "নিদর্শন": 4962,
      "কথাবার্তা": 4963,
      "অলি": 4964,
      "সাঈদ": 4965,
      "এএ": 4966,
      "চাইল": 4967,
      "ণার": 4968,
      "মেল": 4969,
      "টিভ": 4970,
      "ভক্তি": 4971,
      "কন্": 4972,
      "চাকর": 4973,
      "ব্দে": 4974,
      "লতের": 4975,
      "অসাধারণ": 4976,
      "বিস্ফোর": 4977,
      "হেড": 4978,
      "সেরে": 4979,
      "অধিনায়ক": 4980,
      "তারাই": 4981,
      "নীরব": 4982,
      "হামলার": 4983,
      "কাঠের": 4984,
      "পাচ্ছি": 4985,
      "মিষ্টি": 4986,
      "জন্যেই": 4987,
      "ঈল": 4988,
      "যোগ্যতা": 4989,
      "উড়ে": 4990,
      "সনে": 4991,
      "বাসীদের": 4992,
      "উন্নতি": 4993,
      "সংক্ষিপ্ত": 4994,
      "গেছি": 4995,
      "বকে": 4996,
      "সরবরাহ": 4997,
      "ইবনুল": 4998,
      "ভঙ্গি": 4999,
      "রথ": 5000,
      "এশিয়া": 5001,
      "উৎসাহ": 5002,
      "মিসেস": 5003,
      "টোয়েন্টিফোর": 5004,
      "করতাম": 5005,
      "বারি": 5006,
      "ংকার": 5007,
      "শরীফ": 5008,
      "যাবতীয়": 5009,
      "কপি": 5010,
      "বিশেষজ্ঞ": 5011,
      "কুঁ": 5012,
      "কোম্পানির": 5013,
      "দেখলেন": 5014,
      "স্টান": 5015,
      "তালাক": 5016,
      "উমার": 5017,
      "লাইট": 5018,
      "এখানেই": 5019,
      "সাংবাদিকদের": 5020,
      "গানি": 5021,
      "শরা": 5022,
      "ছার": 5023,
      "স্ট্রি": 5024,
      "পত্রিকা": 5025,
      "গ্যাস": 5026,
      "সেন্ট": 5027,
      "স্কুলের": 5028,
      "নেতৃত্ব": 5029,
      "ান্তরে": 5030,
      "ঘুমিয়ে": 5031,
      "প্রধানমন্ত্রীর": 5032,
      "ভয়াবহ": 5033,
      "পুরোনো": 5034,
      "প্রেমের": 5035,
      "আল্লা": 5036,
      "ছনের": 5037,
      "বক্তৃ": 5038,
      "খানায়": 5039,
      "প্রকৃতির": 5040,
      "সরু": 5041,
      "উপলব্ধি": 5042,
      "পরাজিত": 5043,
      "সিগারেট": 5044,
      "রক্ষিত": 5045,
      "কাশে": 5046,
      "ভাবি": 5047,
      "চিনতে": 5048,
      "কাস": 5049,
      "ঠিকানা": 5050,
      "আমান": 5051,
      "বাহন": 5052,
      "অভিয": 5053,
      "১১১": 5054,
      "ভ্রমণ": 5055,
      "থাকবেন": 5056,
      "প্রফে": 5057,
      "মিছিল": 5058,
      "রাত্রি": 5059,
      "িব": 5060,
      "আমেরিকা": 5061,
      "চাচা": 5062,
      "ন্ডার": 5063,
      "গর্ত": 5064,
      "কৃষ": 5065,
      "কেন্দ্রে": 5066,
      "বাচ": 5067,
      "ডায়": 5068,
      "বিছানায়": 5069,
      "পিঠে": 5070,
      "আয়েশা": 5071,
      "লব": 5072,
      "মেয়েটা": 5073,
      "প্রচেষ্টা": 5074,
      "বেতন": 5075,
      "ন্তা": 5076,
      "স্তান": 5077,
      "জুম": 5078,
      "বিচিত্র": 5079,
      "ন্যাশনাল": 5080,
      "মাধ": 5081,
      "য়ত": 5082,
      "আং": 5083,
      "পিঠ": 5084,
      "৭৪": 5085,
      "ফতার": 5086,
      "দাঁড়": 5087,
      "ফুলের": 5088,
      "ক্ষিত": 5089,
      "ফত": 5090,
      "কাজটা": 5091,
      "লিমি": 5092,
      "রির": 5093,
      "বুঝিয়ে": 5094,
      "হইয়াছিল": 5095,
      "কথাগুলো": 5096,
      "২০১৪": 5097,
      "কর্মের": 5098,
      "সপ": 5099,
      "পরেও": 5100,
      "আউট": 5101,
      "মাং": 5102,
      "অভিযোগে": 5103,
      "গুর": 5104,
      "গলার": 5105,
      "পড়েছিল": 5106,
      "্যো": 5107,
      "নেতারা": 5108,
      "ক্ষেপে": 5109,
      "কর্মীরা": 5110,
      "সংগ্রহের": 5111,
      "একর": 5112,
      "জব": 5113,
      "অদৃশ্য": 5114,
      "টিই": 5115,
      "একজনের": 5116,
      "নাচ": 5117,
      "মনোনয়ন": 5118,
      "শ্যক": 5119,
      "বেক্ষণ": 5120,
      "১০৮": 5121,
      "য়্যা": 5122,
      "বরাবর": 5123,
      "ঘাড়": 5124,
      "শরিক": 5125,
      "চল্": 5126,
      "কলকাতার": 5127,
      "পাতে": 5128,
      "মোটেই": 5129,
      "সাপ": 5130,
      "করু": 5131,
      "জাদু": 5132,
      "নগরের": 5133,
      "ইন্ডি": 5134,
      "একসময়": 5135,
      "গোত্র": 5136,
      "হতেই": 5137,
      "খেলতে": 5138,
      "ঘোর": 5139,
      "ভারি": 5140,
      "ডুবে": 5141,
      "দেবতা": 5142,
      "আমিই": 5143,
      "ম্বার": 5144,
      "আত্মা": 5145,
      "যাঁরা": 5146,
      "যথাযথ": 5147,
      "জ্র": 5148,
      "সিরিয়া": 5149,
      "জানালেন": 5150,
      "ইতিহাসে": 5151,
      "সিলেট": 5152,
      "কমা": 5153,
      "বিক্রয়": 5154,
      "ওবা": 5155,
      "দীড়া": 5156,
      "ফেরার": 5157,
      "উস": 5158,
      "বৃক্ষ": 5159,
      "চলাচল": 5160,
      "বন্দি": 5161,
      "ইরা": 5162,
      "সঙ্গেই": 5163,
      "জামায়া": 5164,
      "আমিন": 5165,
      "পাখ": 5166,
      "বিরোধি": 5167,
      "নজরুল": 5168,
      "অনেকের": 5169,
      "কৌতু": 5170,
      "২০১৩": 5171,
      "স্বাধীনতার": 5172,
      "গিরি": 5173,
      "মুগ্ধ": 5174,
      "মিশে": 5175,
      "২০১৫": 5176,
      "বংশের": 5177,
      "আব্দুল": 5178,
      "চক্ষু": 5179,
      "য়ারা": 5180,
      "ঙ্গের": 5181,
      "টারের": 5182,
      "ভিয়েত": 5183,
      "ফ্রি": 5184,
      "অবশিষ্ট": 5185,
      "হইলেন": 5186,
      "পঞ্চম": 5187,
      "এলাম": 5188,
      "বিলি": 5189,
      "বিজি": 5190,
      "মৌল": 5191,
      "নেতাদের": 5192,
      "দ্রি": 5193,
      "করছ": 5194,
      "গায়ের": 5195,
      "থিত": 5196,
      "পরিত্যাগ": 5197,
      "পাবলি": 5198,
      "ঠেলে": 5199,
      "কপালে": 5200,
      "শিশুদের": 5201,
      "গণিত": 5202,
      "আদালতের": 5203,
      "চ্যাম্পি": 5204,
      "সম্পদের": 5205,
      "ম্ত": 5206,
      "সংঘটিত": 5207,
      "সার্ভি": 5208,
      "সুন্দরী": 5209,
      "ষড়যন্ত্র": 5210,
      "শারীর": 5211,
      "রেখেছেন": 5212,
      "বাহির": 5213,
      "অপেক্ষ": 5214,
      "সম্পত্তি": 5215,
      "নির্মিত": 5216,
      "আদম": 5217,
      "সতী": 5218,
      "রপ্তানি": 5219,
      "ানেল": 5220,
      "মেজর": 5221,
      "সেট": 5222,
      "করেছ": 5223,
      "সনদ": 5224,
      "ধাক্কা": 5225,
      "মরান": 5226,
      "বিচ": 5227,
      "খাত": 5228,
      "ধনী": 5229,
      "য়ার্": 5230,
      "দুজনে": 5231,
      "লাগি": 5232,
      "র্ষে": 5233,
      "ডিজি": 5234,
      "পুঁজি": 5235,
      "জ্ঞানের": 5236,
      "বিভক্ত": 5237,
      "সেন্টার": 5238,
      "উঠবে": 5239,
      "কাঠামো": 5240,
      "প্রবণ": 5241,
      "নোট": 5242,
      "চাষ": 5243,
      "গিয়েছিলেন": 5244,
      "নার্": 5245,
      "সিসি": 5246,
      "দার্": 5247,
      "ডাকে": 5248,
      "কলেজে": 5249,
      "প্রতিরোধ": 5250,
      "স্ট্র": 5251,
      "শোধন": 5252,
      "আঙুল": 5253,
      "রেখা": 5254,
      "মুক্তিযোদ্ধা": 5255,
      "ত্তম": 5256,
      "বিদ্যালয়ের": 5257,
      "দলিল": 5258,
      "স্বাদ": 5259,
      "রুমে": 5260,
      "ক্লাব": 5261,
      "বাহী": 5262,
      "কোণ": 5263,
      "ঙ্গি": 5264,
      "কতি": 5265,
      "বিশুদ্ধ": 5266,
      "ধ্যান": 5267,
      "কান্না": 5268,
      "বিবি": 5269,
      "পাঁর": 5270,
      "লোকটার": 5271,
      "বিহার": 5272,
      "ন্সি": 5273,
      "চাঁদ": 5274,
      "ব্দ": 5275,
      "টিও": 5276,
      "দিচ্ছেন": 5277,
      "রেন": 5278,
      "গোত্রের": 5279,
      "চাতে": 5280,
      "ঠাণ্ডা": 5281,
      "একেবারেই": 5282,
      "বোধন": 5283,
      "রহমানের": 5284,
      "ইবৃ": 5285,
      "ব্যবহারের": 5286,
      "হির": 5287,
      "বালি": 5288,
      "দেখেই": 5289,
      "রোযা": 5290,
      "শোন": 5291,
      "জ্যের": 5292,
      "মধ্যেও": 5293,
      "সপ্তাহে": 5294,
      "ত্রিশ": 5295,
      "পীড়": 5296,
      "বিশ্রা": 5297,
      "জক": 5298,
      "পণ্ডিত": 5299,
      "তাওয়া": 5300,
      "মানি": 5301,
      "দেখছে": 5302,
      "ঈসা": 5303,
      "ইশ": 5304,
      "কুমি": 5305,
      "দেখবে": 5306,
      "ধরল": 5307,
      "মরু": 5308,
      "রেশ": 5309,
      "সময়ই": 5310,
      "গঙ্গা": 5311,
      "ইত": 5312,
      "চ্ছু": 5313,
      "গোপাল": 5314,
      "নাদ": 5315,
      "সাইকেল": 5316,
      "আমদানি": 5317,
      "রক্ষার": 5318,
      "বাঁধা": 5319,
      "সমিতির": 5320,
      "সেখানেই": 5321,
      "ঙ্কার": 5322,
      "৭৯": 5323,
      "ক্যান": 5324,
      "উপদে": 5325,
      "কস": 5326,
      "ওয়েব": 5327,
      "ক্ষমতায়": 5328,
      "৭৩": 5329,
      "দোকানে": 5330,
      "সাময়িক": 5331,
      "পূজা": 5332,
      "প্রাকৃতিক": 5333,
      "পাধ্যায়": 5334,
      "স্টো": 5335,
      "আরবী": 5336,
      "রকমের": 5337,
      "মুক্তির": 5338,
      "শ্ত": 5339,
      "জানাতে": 5340,
      "অসহায়": 5341,
      "স্বস্তি": 5342,
      "হাসপাতাল": 5343,
      "নইলে": 5344,
      "পীর": 5345,
      "যৌথ": 5346,
      "সৌন্দর্য": 5347,
      "ক্ষত": 5348,
      "ত্তে": 5349,
      "দুর্নীতি": 5350,
      "বধ": 5351,
      "ক্রিকে": 5352,
      "আফগানি": 5353,
      "বজায়": 5354,
      "চড়": 5355,
      "হুমকি": 5356,
      "সুপারিশ": 5357,
      "দৌড়ে": 5358,
      "দরিদ্র": 5359,
      "লক্ষ্ম": 5360,
      "কেত": 5361,
      "উঁচু": 5362,
      "মুছে": 5363,
      "সরের": 5364,
      "পারলাম": 5365,
      "দরজায়": 5366,
      "বিভাগে": 5367,
      "ইহুদী": 5368,
      "টেবিল": 5369,
      "নরম": 5370,
      "শ্রো": 5371,
      "আমীর": 5372,
      "হইতেছে": 5373,
      "হয়েছি": 5374,
      "দেখেছে": 5375,
      "হলাম": 5376,
      "আড়ালে": 5377,
      "হরণ": 5378,
      "সন্দেহে": 5379,
      "বাসিন্দা": 5380,
      "কাতে": 5381,
      "বাসন": 5382,
      "উত": 5383,
      "লোভ": 5384,
      "পত্য": 5385,
      "আপি": 5386,
      "অবদান": 5387,
      "নির্দেশনা": 5388,
      "হাসপাতালের": 5389,
      "নেড়ে": 5390,
      "তিরমিযী": 5391,
      "করিনি": 5392,
      "প্রতিযোগি": 5393,
      "ওদিকে": 5394,
      "উপন্যাস": 5395,
      "লয়": 5396,
      "আরি": 5397,
      "কোলে": 5398,
      "১১৯": 5399,
      "বিজ্ঞানের": 5400,
      "ডেন": 5401,
      "মিস্টার": 5402,
      "মোড়": 5403,
      "নিরপেক্ষ": 5404,
      "খলী": 5405,
      "আলোয়": 5406,
      "হাদের": 5407,
      "স্বেচ্ছা": 5408,
      "প্রসার": 5409,
      "কূল": 5410,
      "পারিনি": 5411,
      "ঘ্": 5412,
      "গোষ্ঠী": 5413,
      "বিবা": 5414,
      "হ্যারি": 5415,
      "সংকট": 5416,
      "পোস্ট": 5417,
      "বইয়ের": 5418,
      "কেউই": 5419,
      "গুরুতর": 5420,
      "কালাম": 5421,
      "০৮৮": 5422,
      "কফি": 5423,
      "বোকা": 5424,
      "আলোক": 5425,
      "তোলার": 5426,
      "দমন": 5427,
      "সন্তুষ্ট": 5428,
      "হইত": 5429,
      "চাদ": 5430,
      "অনুষ্ঠানের": 5431,
      "দায়ে": 5432,
      "কার্যালয়ে": 5433,
      "স্টেশন": 5434,
      "অবরোধ": 5435,
      "কারীরা": 5436,
      "দিনই": 5437,
      "ধারাবাহিক": 5438,
      "ধ্বনি": 5439,
      "ভঙ্গিতে": 5440,
      "ফিত": 5441,
      "সংগ্রাম": 5442,
      "আউ": 5443,
      "ফিল্": 5444,
      "রোহি": 5445,
      "আসুন": 5446,
      "কাব": 5447,
      "মাও": 5448,
      "স্ত্রীকে": 5449,
      "রিপোর্ট": 5450,
      "১০৯": 5451,
      "বারিক": 5452,
      "হাক": 5453,
      "হইয়": 5454,
      "চালক": 5455,
      "গর্ভ": 5456,
      "সম্মুখে": 5457,
      "দ্দিন": 5458,
      "পড়লো": 5459,
      "মহে": 5460,
      "বিস্ময়": 5461,
      "হুর": 5462,
      "করিয়াছিলেন": 5463,
      "চাওয়া": 5464,
      "টেলিভি": 5465,
      "বাত": 5466,
      "এপ": 5467,
      "ফলাফল": 5468,
      "জিয়ার": 5469,
      "হোটেল": 5470,
      "বিচারপতি": 5471,
      "গিত": 5472,
      "পাশ্": 5473,
      "টাকায়": 5474,
      "আমলে": 5475,
      "সাফল্য": 5476,
      "অর্ধেক": 5477,
      "অতীত": 5478,
      "আরম্ভ": 5479,
      "তারাও": 5480,
      "বেয়ে": 5481,
      "প্রাই": 5482,
      "দ্দীন": 5483,
      "খাল": 5484,
      "নির্যাতন": 5485,
      "এট": 5486,
      "য্": 5487,
      "দেখাতে": 5488,
      "সিনেমা": 5489,
      "এখ": 5490,
      "ফসীর": 5491,
      "আমেরিকার": 5492,
      "অভ": 5493,
      "পানে": 5494,
      "কুট": 5495,
      "উপাদান": 5496,
      "কাদ": 5497,
      "িকান": 5498,
      "রাষ্ট্রপতি": 5499,
      "চ্যালে": 5500,
      "কবুল": 5501,
      "কিসের": 5502,
      "ক্ষতিগ্রস্ত": 5503,
      "হৈ": 5504,
      "কুশ": 5505,
      "গভর্": 5506,
      "চ্যাম্পিয়ন": 5507,
      "উঠেছিল": 5508,
      "আয়োজিত": 5509,
      "ছারা": 5510,
      "মিতা": 5511,
      "সম্মুখ": 5512,
      "পড়লেন": 5513,
      "উপভোগ": 5514,
      "ওয়াত": 5515,
      "য়ারে": 5516,
      "গুণা": 5517,
      "ৌকিক": 5518,
      "কর্মকাণ্ড": 5519,
      "পিছন": 5520,
      "সন্ত্রাসী": 5521,
      "হচ্ছেন": 5522,
      "গুলিতে": 5523,
      "অভিভাব": 5524,
      "জন্মের": 5525,
      "বিশ্বকা": 5526,
      "সায়ে": 5527,
      "যথার্থ": 5528,
      "আলোচনায়": 5529,
      "চারের": 5530,
      "সেনাবাহিনী": 5531,
      "রানে": 5532,
      "ম্মদ": 5533,
      "আল্লাহকে": 5534,
      "আওতায়": 5535,
      "মাদক": 5536,
      "পতন": 5537,
      "উড": 5538,
      "করুণ": 5539,
      "অনেকক্ষণ": 5540,
      "তুলনা": 5541,
      "ইহুদি": 5542,
      "চারদিকে": 5543,
      "নামাযের": 5544,
      "ডাই": 5545,
      "বিকল্প": 5546,
      "জত": 5547,
      "বৃদ্ধির": 5548,
      "কক্ষে": 5549,
      "প্রান্তে": 5550,
      "হালাল": 5551,
      "এলি": 5552,
      "পররাষ্ট্র": 5553,
      "উল্লাহ": 5554,
      "ওড়া": 5555,
      "মেঝে": 5556,
      "স্যু": 5557,
      "সও": 5558,
      "ছাড়িয়ে": 5559,
      "আশরা": 5560,
      "ধ্যা": 5561,
      "পর্যায়ের": 5562,
      "এইভাবে": 5563,
      "তোলে": 5564,
      "খলি": 5565,
      "পটে": 5566,
      "ঙ্গীর": 5567,
      "পরিবহন": 5568,
      "রন": 5569,
      "গ্রু": 5570,
      "রুন": 5571,
      "সাথ": 5572,
      "শোনার": 5573,
      "গেলেও": 5574,
      "বাস্তবায়ন": 5575,
      "১০০০": 5576,
      "পিছিয়ে": 5577,
      "২য়": 5578,
      "জালে": 5579,
      "বাংলায়": 5580,
      "ক্ষিতে": 5581,
      "শ্রবণ": 5582,
      "পুনঃ": 5583,
      "একখানা": 5584,
      "বিশ্বে": 5585,
      "গলের": 5586,
      "জোট": 5587,
      "সদস্যদের": 5588,
      "উপকার": 5589,
      "শিং": 5590,
      "মিনিটে": 5591,
      "সম্যান": 5592,
      "ছবিতে": 5593,
      "্যানি": 5594,
      "উদ্বোধন": 5595,
      "সাহাবা": 5596,
      "পাড়ার": 5597,
      "মধো": 5598,
      "উল্টো": 5599,
      "রুম": 5600,
      "প্রথা": 5601,
      "মতই": 5602,
      "কক": 5603,
      "কহিলেন": 5604,
      "সম্পাদ": 5605,
      "ছোটো": 5606,
      "শুরুতে": 5607,
      "চাইছে": 5608,
      "গুনাহ": 5609,
      "গৃহে": 5610,
      "চুপচাপ": 5611,
      "বিতরণ": 5612,
      "শরি": 5613,
      "বিক্ষোভ": 5614,
      "২০১৬": 5615,
      "ক্ষার": 5616,
      "লং": 5617,
      "নিজেও": 5618,
      "বিন্দ": 5619,
      "সহজেই": 5620,
      "দাসী": 5621,
      "রাসূলের": 5622,
      "বগু": 5623,
      "ানির": 5624,
      "কক্স": 5625,
      "জ্ঞাপন": 5626,
      "এটাও": 5627,
      "ষণে": 5628,
      "ওঠার": 5629,
      "বাসীর": 5630,
      "বর্ণনায়": 5631,
      "শিত": 5632,
      "মহারাজ": 5633,
      "ফ্ল্যা": 5634,
      "প্রতিষ্ঠার": 5635,
      "সদস্যরা": 5636,
      "গণকে": 5637,
      "উৎপন্ন": 5638,
      "গ্রুপ": 5639,
      "বেদনা": 5640,
      "প্রসঙ্গ": 5641,
      "ভবিষ্যৎ": 5642,
      "গার্": 5643,
      "চলল": 5644,
      "ন্তু": 5645,
      "টস": 5646,
      "তেজ": 5647,
      "অভ্যাস": 5648,
      "চলার": 5649,
      "বিজয়ী": 5650,
      "নিকটে": 5651,
      "দাবিতে": 5652,
      "করিম": 5653,
      "তুম": 5654,
      "নিম": 5655,
      "মারের": 5656,
      "কোর্ট": 5657,
      "ঝর": 5658,
      "সর্গ": 5659,
      "আনন্দে": 5660,
      "নিলে": 5661,
      "অধিদপ্ত": 5662,
      "উপস্থাপন": 5663,
      "ছাত্রলীগের": 5664,
      "সম্রাট": 5665,
      "রশি": 5666,
      "মধুর": 5667,
      "পরীক্ষায়": 5668,
      "সার্ব": 5669,
      "টক": 5670,
      "করুক": 5671,
      "গাড়": 5672,
      "ধারার": 5673,
      "লিখতে": 5674,
      "ছেলেকে": 5675,
      "টেল": 5676,
      "১৯০": 5677,
      "৭৬": 5678,
      "হার্": 5679,
      "চতুর্": 5680,
      "করিয়াছে": 5681,
      "২০১১": 5682,
      "মেশ": 5683,
      "কখনোই": 5684,
      "সিলে": 5685,
      "ভরসা": 5686,
      "৭২": 5687,
      "আসনে": 5688,
      "চেক": 5689,
      "সরকারী": 5690,
      "ট্রাক": 5691,
      "ঘৃণা": 5692,
      "চিঠ": 5693,
      "লিও": 5694,
      "পাঞ্জা": 5695,
      "তত্ব": 5696,
      "স্বাক্ষর": 5697,
      "চড়া": 5698,
      "কতটা": 5699,
      "২০১৮": 5700,
      "জরা": 5701,
      "ঘাতে": 5702,
      "আনহু": 5703,
      "গোপনে": 5704,
      "সংস্থার": 5705,
      "পারিবারিক": 5706,
      "গতিতে": 5707,
      "োষ": 5708,
      "আস্ত": 5709,
      "প্রেক্ষিতে": 5710,
      "ডারে": 5711,
      "দৃষ্টান্ত": 5712,
      "বিদ্ধ": 5713,
      "নাট্য": 5714,
      "তই": 5715,
      "প্রয়োজনে": 5716,
      "োজ": 5717,
      "চাবি": 5718,
      "কুরআনে": 5719,
      "প্রতার": 5720,
      "লাঠি": 5721,
      "স্বচ্ছ": 5722,
      "সরা": 5723,
      "অধীন": 5724,
      "মহানগর": 5725,
      "মডেল": 5726,
      "ভাবা": 5727,
      "গ্রহণযোগ্য": 5728,
      "আবেগ": 5729,
      "আনুষ্ঠান": 5730,
      "কহিল": 5731,
      "জীর": 5732,
      "আন্দা": 5733,
      "নেব": 5734,
      "উভয়ের": 5735,
      "নবীর": 5736,
      "এসেছিলেন": 5737,
      "২০১২": 5738,
      "জাফর": 5739,
      "ভেল": 5740,
      "থের": 5741,
      "যম": 5742,
      "একদিকে": 5743,
      "নিয়ো": 5744,
      "ক্যাপ্টে": 5745,
      "আরেকটা": 5746,
      "উপজেলায়": 5747,
      "সুবিধে": 5748,
      "পার্ব": 5749,
      "এদিক": 5750,
      "বিক্র": 5751,
      "রেজা": 5752,
      "দলকে": 5753,
      "কমিশনের": 5754,
      "চালানো": 5755,
      "সাব্যস্ত": 5756,
      "হোটেলে": 5757,
      "জানালা": 5758,
      "অবধি": 5759,
      "ক্রীড়া": 5760,
      "নক্ষ": 5761,
      "ইবৃন": 5762,
      "বীজ": 5763,
      "মাসআলা": 5764,
      "চিন্তার": 5765,
      "পর্দা": 5766,
      "খানেক": 5767,
      "বাঁধ": 5768,
      "সত্যের": 5769,
      "ভল": 5770,
      "০৪০": 5771,
      "সংশোধন": 5772,
      "জমিদার": 5773,
      "ইব্রা": 5774,
      "লাগানো": 5775,
      "টেবিলের": 5776,
      "পেটে": 5777,
      "নালে": 5778,
      "শতাব্দী": 5779,
      "০৬০": 5780,
      "গরী": 5781,
      "বিলু": 5782,
      "ডন": 5783,
      "ল্ট": 5784,
      "হাকে": 5785,
      "জ্বাল": 5786,
      "হেঁটে": 5787,
      "বিস্তৃত": 5788,
      "তাহাতে": 5789,
      "বলেও": 5790,
      "ফ্রা": 5791,
      "পরিশোধ": 5792,
      "১৯৭১": 5793,
      "ক্লাস": 5794,
      "বারী": 5795,
      "কোণে": 5796,
      "মিয়ার": 5797,
      "অস্": 5798,
      "ঝগড়া": 5799,
      "মুদ্রা": 5800,
      "বশ": 5801,
      "োল": 5802,
      "বৃহৎ": 5803,
      "পত্রের": 5804,
      "পরিদর্শক": 5805,
      "কৃষক": 5806,
      "ঘাটে": 5807,
      "দিকেই": 5808,
      "কেজি": 5809,
      "তীরে": 5810,
      "চারজন": 5811,
      "বসিয়ে": 5812,
      "প্রতিবেদনে": 5813,
      "হুজুর": 5814,
      "বাঁচ": 5815,
      "শ্রু": 5816,
      "বাবাকে": 5817,
      "যতই": 5818,
      "ইমা": 5819,
      "বিশ্লেষণ": 5820,
      "গন্ত": 5821,
      "উপদেষ্টা": 5822,
      "বিদেশে": 5823,
      "ঘোষ": 5824,
      "েন": 5825,
      "আমেরিকান": 5826,
      "ওসব": 5827,
      "ছাড়াই": 5828,
      "জ্জিত": 5829,
      "পূর্বক": 5830,
      "বাথ": 5831,
      "মুখ্য": 5832,
      "মশ": 5833,
      "দুর্ঘটনা": 5834,
      "মাহবু": 5835,
      "বাড়ছে": 5836,
      "গম্": 5837,
      "কৃষ্": 5838,
      "জ্ঞানিক": 5839,
      "৮০৮": 5840,
      "কাউন্সিল": 5841,
      "বিচারক": 5842,
      "আস্থা": 5843,
      "আবির্": 5844,
      "দাড়ি": 5845,
      "কান্ত": 5846,
      "শস্ত্র": 5847,
      "মেশি": 5848,
      "লই": 5849,
      "যন্ত্রণা": 5850,
      "হামি": 5851,
      "বেড়াতে": 5852,
      "আগেও": 5853,
      "বোর্ডের": 5854,
      "বিনয়": 5855,
      "সংখ্যার": 5856,
      "পুণ্য": 5857,
      "অষ্ট": 5858,
      "মহানবী": 5859,
      "নিরু": 5860,
      "আকবর": 5861,
      "ুব": 5862,
      "কলি": 5863,
      "কারাগারে": 5864,
      "মুসলি": 5865,
      "ফাক": 5866,
      "জিহাদ": 5867,
      "শাড়ি": 5868,
      "বিচারের": 5869,
      "তাস": 5870,
      "আগুনের": 5871,
      "ধারী": 5872,
      "থাম": 5873,
      "বিশ্ববিদ্যালয়ে": 5874,
      "লাইনে": 5875,
      "সাফ": 5876,
      "ঘুরিয়ে": 5877,
      "দারা": 5878,
      "মাঝি": 5879,
      "এভাবেই": 5880,
      "পিক": 5881,
      "হিজরী": 5882,
      "পারলেন": 5883,
      "অপরের": 5884,
      "স্বল্প": 5885,
      "যেদিন": 5886,
      "ঘণ্টার": 5887,
      "ফরয": 5888,
      "দৈনিক": 5889,
      "এক্ষে": 5890,
      "বসতে": 5891,
      "ঘন্টা": 5892,
      "রহঃ": 5893,
      "পানের": 5894,
      "জায়েয": 5895,
      "অভিন": 5896,
      "পায়নি": 5897,
      "জমির": 5898,
      "করিবেন": 5899,
      "পারছেন": 5900,
      "বাছাই": 5901,
      "প্রত্যাখ্যান": 5902,
      "প্রকাশের": 5903,
      "কর্মকর্তারা": 5904,
      "আর্ত": 5905,
      "৯২": 5906,
      "পকেট": 5907,
      "ঙ্গু": 5908,
      "আরোপ": 5909,
      "নুরু": 5910,
      "নাবী": 5911,
      "এসসি": 5912,
      "পুলি": 5913,
      "তিহ্য": 5914,
      "বদল": 5915,
      "দানী": 5916,
      "পাঁচটি": 5917,
      "প্রদত্ত": 5918,
      "ক্রমশ": 5919,
      "অবসর": 5920,
      "জিৎ": 5921,
      "শোভা": 5922,
      "ঘনিষ্ঠ": 5923,
      "জয়ী": 5924,
      "বনু": 5925,
      "টেবিলে": 5926,
      "হানী": 5927,
      "নিরী": 5928,
      "খুনি": 5929,
      "বাজি": 5930,
      "ঢেকে": 5931,
      "বনী": 5932,
      "রানের": 5933,
      "শাপ": 5934,
      "এতক্ষণ": 5935,
      "আব্দুল্লাহ": 5936,
      "মুহুর": 5937,
      "প্রেরিত": 5938,
      "পূর্বা": 5939,
      "রেই": 5940,
      "সৌদি": 5941,
      "শারীরিক": 5942,
      "সুফি": 5943,
      "ঁক": 5944,
      "ক্লান্ত": 5945,
      "টারে": 5946,
      "মারাত্মক": 5947,
      "হেরে": 5948,
      "পাশ্চা": 5949,
      "গোসল": 5950,
      "বয়স্ক": 5951,
      "আসেনি": 5952,
      "১৫০": 5953,
      "ফয়": 5954,
      "সত্তেও": 5955,
      "ম্ম": 5956,
      "দরবারে": 5957,
      "রায়ের": 5958,
      "এটাকে": 5959,
      "রাল": 5960,
      "তোয়া": 5961,
      "সাম্রাজ্য": 5962,
      "ফেলার": 5963,
      "আরাম": 5964,
      "শয": 5965,
      "ইস্": 5966,
      "উঠিল": 5967,
      "ফারা": 5968,
      "বন্দুক": 5969,
      "স্বতন্ত্র": 5970,
      "প্রতিবেশী": 5971,
      "আনন্দের": 5972,
      "ভবিষ্যতে": 5973,
      "অর্ধ": 5974,
      "প্রতিশ্রুতি": 5975,
      "ইনস্টি": 5976,
      "আকার": 5977,
      "ঝুল": 5978,
      "মুজাহিদ": 5979,
      "দুজনেই": 5980,
      "স্থাপিত": 5981,
      "মিলন": 5982,
      "আইএস": 5983,
      "সিংহাস": 5984,
      "আহা": 5985,
      "পঞ্চাশ": 5986,
      "হীর": 5987,
      "পৌঁছ": 5988,
      "কর্মচার": 5989,
      "ুকে": 5990,
      "শিখে": 5991,
      "করিব": 5992,
      "চেতনা": 5993,
      "এক্ষেত্রে": 5994,
      "প্রকল্পের": 5995,
      "বৈজ্ঞানিক": 5996,
      "একমত": 5997,
      "ক্ষয়": 5998,
      "আমির": 5999,
      "০৯০": 6000,
      "অমন": 6001,
      "তেছে": 6002,
      "হত্যাকাণ্ড": 6003,
      "সক্রিয়": 6004,
      "চীনের": 6005,
      "০০১": 6006,
      "আনাস": 6007,
      "প্রেক্ষা": 6008,
      "উজ": 6009,
      "প্রতিযোগিতা": 6010,
      "পিতৃ": 6011,
      "ছুরি": 6012,
      "রাজ্যে": 6013,
      "২০১০": 6014,
      "অরু": 6015,
      "পূর্ণা": 6016,
      "চালাতে": 6017,
      "্ী": 6018,
      "দেখায়": 6019,
      "বৃষ্টির": 6020,
      "করলেই": 6021,
      "প্রতীক": 6022,
      "বিদ্রোহী": 6023,
      "ধরি": 6024,
      "পালের": 6025,
      "তোমায়": 6026,
      "দূরের": 6027,
      "উঠি": 6028,
      "কাফ": 6029,
      "জাম": 6030,
      "আনোয়ার": 6031,
      "মায়ে": 6032,
      "ঘড়ি": 6033,
      "নিয়র": 6034,
      "লাপ": 6035,
      "আকী": 6036,
      "শর্": 6037,
      "অংশের": 6038,
      "ইমরান": 6039,
      "ঁড়": 6040,
      "বিহীন": 6041,
      "অংশী": 6042,
      "লেগেছে": 6043,
      "আড়াই": 6044,
      "জাই": 6045,
      "সান্ত": 6046,
      "পিস্ত": 6047,
      "ন্দী": 6048,
      "শুরুর": 6049,
      "অবকাশ": 6050,
      "আপাতত": 6051,
      "ূর": 6052,
      "সহকারে": 6053,
      "উক্তি": 6054,
      "ঠার": 6055,
      "সমর্পণ": 6056,
      "সান্": 6057,
      "দেশীয়": 6058,
      "দেশিক": 6059,
      "তপ": 6060,
      "প্রী": 6061,
      "বিশেষভাবে": 6062,
      "নিচ্ছে": 6063,
      "থির": 6064,
      "জন্যও": 6065,
      "ইসলামি": 6066,
      "মিয়ান": 6067,
      "চারপাশে": 6068,
      "নিবন্ধ": 6069,
      "শয়ত": 6070,
      "নিতান্ত": 6071,
      "সাম্য": 6072,
      "ধান্য": 6073,
      "সাগরের": 6074,
      "ভবনে": 6075,
      "মেজ": 6076,
      "সিজ": 6077,
      "বিমানব": 6078,
      "শতাব্দীর": 6079,
      "মাসুদ": 6080,
      "সন্ধি": 6081,
      "মাফ": 6082,
      "জাজ": 6083,
      "মায": 6084,
      "চর্চা": 6085,
      "লগ্ন": 6086,
      "দিও": 6087,
      "লোয়ার": 6088,
      "ছড়া": 6089,
      "গোষ্ঠীর": 6090,
      "টেলিফোন": 6091,
      "সংক": 6092,
      "মুস্তা": 6093,
      "ক্রেতা": 6094,
      "সমাপ্ত": 6095,
      "১৪০": 6096,
      "লুল": 6097,
      "বিণ": 6098,
      "আবশ্যক": 6099,
      "পর্বত": 6100,
      "সড়কের": 6101,
      "রাখল": 6102,
      "ফরিদ": 6103,
      "দিব্য": 6104,
      "তলার": 6105,
      "বলের": 6106,
      "দখ": 6107,
      "সম্ত": 6108,
      "স্তরে": 6109,
      "রামের": 6110,
      "ফাতে": 6111,
      "বিপ্র": 6112,
      "সঙ্গত": 6113,
      "লকে": 6114,
      "ছুট": 6115,
      "্বেও": 6116,
      "পতাকা": 6117,
      "ঢেউ": 6118,
      "মৈ": 6119,
      "রফিক": 6120,
      "বব": 6121,
      "বসু": 6122,
      "এতদিন": 6123,
      "রাশিয়া": 6124,
      "নেয়ার": 6125,
      "নির্বাচনী": 6126,
      "টিপে": 6127,
      "ীকার": 6128,
      "স্ু": 6129,
      "মিথ্যে": 6130,
      "প্রতিবন্ধ": 6131,
      "ছাপা": 6132,
      "অপরাধী": 6133,
      "বাঙ": 6134,
      "পাদ": 6135,
      "৯০০": 6136,
      "বিশ্বাসের": 6137,
      "তৈরির": 6138,
      "দুর্গ": 6139,
      "ভবনের": 6140,
      "জাহাঙ্গীর": 6141,
      "তিনিও": 6142,
      "কাগজে": 6143,
      "আলাম": 6144,
      "মহাসড়": 6145,
      "সীন": 6146,
      "আশে": 6147,
      "বিপদে": 6148,
      "মেই": 6149,
      "ফিন": 6150,
      "চালায়": 6151,
      "গণতান্ত্রিক": 6152,
      "দুস": 6153,
      "বিশ্বাসী": 6154,
      "দীর্ঘদিন": 6155,
      "প্রয়া": 6156,
      "বরাদ্দ": 6157,
      "স্বজন": 6158,
      "ইউরোপীয়": 6159,
      "দেশটির": 6160,
      "ঘোড়ার": 6161,
      "টর্": 6162,
      "কেলের": 6163,
      "তালিকায়": 6164,
      "একের": 6165,
      "গোঁ": 6166,
      "১৬০": 6167,
      "চামড়া": 6168,
      "১১৪": 6169,
      "হারি": 6170,
      "খাতের": 6171,
      "মানু": 6172,
      "এবারের": 6173,
      "উদ্যোগে": 6174,
      "করাও": 6175,
      "বিরোধিতা": 6176,
      "মগ": 6177,
      "পরায়": 6178,
      "তাফসীর": 6179,
      "ইলেক": 6180,
      "বেগে": 6181,
      "ক্সে": 6182,
      "বল্": 6183,
      "করাতে": 6184,
      "বাকী": 6185,
      "এডি": 6186,
      "শুকনো": 6187,
      "হলু": 6188,
      "স্কো": 6189,
      "মেষ": 6190,
      "আকারে": 6191,
      "গঞ্জে": 6192,
      "ক্যারি": 6193,
      "মেলায়": 6194,
      "রোড": 6195,
      "ফজ": 6196,
      "চট্টগ্রামের": 6197,
      "যাচাই": 6198,
      "বাদা": 6199,
      "রেজি": 6200,
      "খাবে": 6201,
      "হতাশ": 6202,
      "আধ্যা": 6203,
      "চেয়ারে": 6204,
      "কুড়ি": 6205,
      "দীনের": 6206,
      "পদের": 6207,
      "দেয়াল": 6208,
      "উইয়": 6209,
      "নেত্রী": 6210,
      "খ্": 6211,
      "সাহিত্যের": 6212,
      "বৃত": 6213,
      "পত্রে": 6214,
      "বসিয়া": 6215,
      "১২০": 6216,
      "কণ": 6217,
      "ছের": 6218,
      "কোল": 6219,
      "জীবি": 6220,
      "িকের": 6221,
      "নাস": 6222,
      "সেনাপতি": 6223,
      "মুসলিমদের": 6224,
      "বলত": 6225,
      "কর্মচারী": 6226,
      "ভীত": 6227,
      "বানের": 6228,
      "বিপর্য": 6229,
      "মঞ্চ": 6230,
      "বারান্দায়": 6231,
      "রাজী": 6232,
      "আইনে": 6233,
      "ফসল": 6234,
      "শাখার": 6235,
      "তৎকালীন": 6236,
      "দেখেছেন": 6237,
      "মিউ": 6238,
      "পণ্যের": 6239,
      "ভাবল": 6240,
      "পাঠান": 6241,
      "সাজা": 6242,
      "টিকিট": 6243,
      "ান্স": 6244,
      "বিতর্ক": 6245,
      "গোর": 6246,
      "পড়েছেন": 6247,
      "দুশ্": 6248,
      "সেকেন্ড": 6249,
      "ভাইস": 6250,
      "ধরণের": 6251,
      "পুষ্": 6252,
      "কাহার": 6253,
      "ইরশাদ": 6254,
      "তিনটে": 6255,
      "রেওয়া": 6256,
      "আন্তরিক": 6257,
      "দশা": 6258,
      "চল্লিশ": 6259,
      "বাহু": 6260,
      "খোদা": 6261,
      "ক্যাপ্টেন": 6262,
      "এমনই": 6263,
      "ভূমিতে": 6264,
      "ৃক্ত": 6265,
      "রীণ": 6266,
      "আল্": 6267,
      "বাঁড়": 6268,
      "অজানা": 6269,
      "ইলা": 6270,
      "পাড়": 6271,
      "জ্যেষ্ঠ": 6272,
      "আমন্ত্র": 6273,
      "ময়মন": 6274,
      "অস্ট্রেলিয়া": 6275,
      "মস্তি": 6276,
      "শেষের": 6277,
      "উদার": 6278,
      "আহার": 6279,
      "রাসুল": 6280,
      "ওজন": 6281,
      "টপ": 6282,
      "প্রতিদ্বন্": 6283,
      "বর্ষের": 6284,
      "রাজস্ব": 6285,
      "পর্যায়": 6286,
      "জিদ": 6287,
      "উঠিয়া": 6288,
      "সমন্বয়": 6289,
      "উত্তেজিত": 6290,
      "সমৃদ্ধ": 6291,
      "১৩০": 6292,
      "ারে": 6293,
      "জাপান": 6294,
      "সিআই": 6295,
      "আগ্রহী": 6296,
      "অশ্ব": 6297,
      "ল্ক": 6298,
      "ৈক": 6299,
      "মুটি": 6300,
      "মূল্যবান": 6301,
      "এগার": 6302,
      "য়েদ": 6303,
      "পরিমাণে": 6304,
      "শ্রমিকদের": 6305,
      "সম্ভা": 6306,
      "নিন্দা": 6307,
      "বালক": 6308,
      "একজনকে": 6309,
      "শ্রমি": 6310,
      "শতকের": 6311,
      "লাফিয়ে": 6312,
      "সুখে": 6313,
      "নিউইয়": 6314,
      "সীমাবদ্ধ": 6315,
      "হাড়": 6316,
      "ব্যক্তিত্ব": 6317,
      "মিট": 6318,
      "গৌর": 6319,
      "হাবি": 6320,
      "মির্জা": 6321,
      "নিলাম": 6322,
      "মনোভাব": 6323,
      "তারও": 6324,
      "ানিয়া": 6325,
      "ইবরাহীম": 6326,
      "ক্সের": 6327,
      "প্রফেসর": 6328,
      "মানবিক": 6329,
      "তহ": 6330,
      "জন্মে": 6331,
      "কীর্ণ": 6332,
      "সংযুক্ত": 6333,
      "বৈষ": 6334,
      "সংশোধ": 6335,
      "পাইয়া": 6336,
      "গ্রন্থের": 6337,
      "সম্পর্কের": 6338,
      "পদ্ধতিতে": 6339,
      "অজ্ঞাত": 6340,
      "পরস্পরের": 6341,
      "তারকা": 6342,
      "ধরার": 6343,
      "ছেলেটা": 6344,
      "পটা": 6345,
      "শিবি": 6346,
      "রুশ": 6347,
      "মানবা": 6348,
      "লেখে": 6349,
      "উপকরণ": 6350,
      "তখনো": 6351,
      "গ্রাহক": 6352,
      "উন্ডে": 6353,
      "শ্রেণির": 6354,
      "মক্কা": 6355,
      "কপাল": 6356,
      "বিপরীতে": 6357,
      "ওয়াসাল্লামের": 6358,
      "বিশ্রাম": 6359,
      "কালা": 6360,
      "গিয়াছে": 6361,
      "নল": 6362,
      "ওসমান": 6363,
      "অস্বাভাবিক": 6364,
      "চলিয়া": 6365,
      "হজ্জ": 6366,
      "ভ্রম": 6367,
      "পূর্বেই": 6368,
      "মালিকানা": 6369,
      "করের": 6370,
      "এড়িয়ে": 6371,
      "অবগত": 6372,
      "যুগ্ম": 6373,
      "থাকো": 6374,
      "পাশ্চাত্য": 6375,
      "অর্থের": 6376,
      "গালি": 6377,
      "পরিণতি": 6378,
      "ভয়ঙ্কর": 6379,
      "হাফি": 6380,
      "বিশ্বকাপ": 6381,
      "২০১৭": 6382,
      "তাড়": 6383,
      "শৌ": 6384,
      "জট": 6385,
      "আঞ্চ": 6386,
      "সাঈ": 6387,
      "ব্যাটসম্যান": 6388,
      "হিদ": 6389,
      "রাষ্ট্রে": 6390,
      "আলোচ্য": 6391,
      "মিনী": 6392,
      "অপরাধের": 6393,
      "উল্লিখিত": 6394,
      "ভীতি": 6395,
      "আধি": 6396,
      "স্মার্ট": 6397,
      "প্রাধান্য": 6398,
      "ম্যানেজার": 6399,
      "সেখানকার": 6400,
      "বিছানা": 6401,
      "আড়": 6402,
      "তীক্ষ": 6403,
      "নির্ণ": 6404,
      "কেস": 6405,
      "য়ি": 6406,
      "মাঠের": 6407,
      "অসুবিধা": 6408,
      "ভূমির": 6409,
      "মেন্টের": 6410,
      "আসব": 6411,
      "রানী": 6412,
      "থাকব": 6413,
      "সহযোগী": 6414,
      "জামাল": 6415,
      "ইউনিভার্": 6416,
      "বিষা": 6417,
      "শিক্ষার্থীরা": 6418,
      "সৈনিক": 6419,
      "দর্শী": 6420,
      "ড্রে": 6421,
      "মোটামুটি": 6422,
      "সুম": 6423,
      "বোনের": 6424,
      "আঞ্চলিক": 6425,
      "ফায়ার": 6426,
      "পক্ষান্তরে": 6427,
      "হরা": 6428,
      "৬৬০": 6429,
      "সংস্করণ": 6430,
      "অনুসন্ধান": 6431,
      "জনসাধারণ": 6432,
      "ক্ক": 6433,
      "এসআই": 6434,
      "দুইটি": 6435,
      "ধাঁ": 6436,
      "রানি": 6437,
      "কমল": 6438,
      "ভালবাসা": 6439,
      "শীতল": 6440,
      "সর্বত্র": 6441,
      "বচন": 6442,
      "তকে": 6443,
      "প্রশাসক": 6444,
      "শাসনের": 6445,
      "যখনই": 6446,
      "চিহ্নিত": 6447,
      "ধারায়": 6448,
      "ফিল": 6449,
      "তামা": 6450,
      "জ্বা": 6451,
      "সফরে": 6452,
      "প্রসাদ": 6453,
      "রাষ্ট্রীয়": 6454,
      "ঈমানের": 6455,
      "দ্বিধা": 6456,
      "গলে": 6457,
      "সত্ত্বেও": 6458,
      "তিল": 6459,
      "ড্রাইভার": 6460,
      "সহিংস": 6461,
      "ঠান্ড": 6462,
      "তক": 6463,
      "দ্বীন": 6464,
      "হযে": 6465,
      "কতিপয়": 6466,
      "সংকল": 6467,
      "কাতর": 6468,
      "মিডিয়া": 6469,
      "ভেঙ্গে": 6470,
      "দেখিনি": 6471,
      "সবসময়": 6472,
      "বাদশাহ": 6473,
      "কথাটি": 6474,
      "দলীল": 6475,
      "এনা": 6476,
      "রহিয়াছে": 6477,
      "কার্যালয়": 6478,
      "ডির": 6479,
      "সংগে": 6480,
      "শয়তানের": 6481,
      "পারতেন": 6482,
      "করণে": 6483,
      "দুবার": 6484,
      "বাকারা": 6485,
      "সমুদ্রের": 6486,
      "খুলনা": 6487,
      "প্রসিদ্ধ": 6488,
      "যিহোবার": 6489,
      "আমলের": 6490,
      "ব্যু": 6491,
      "ইনিং": 6492,
      "আলীর": 6493,
      "আল্লামা": 6494,
      "শাহা": 6495,
      ")?": 6496,
      "ভয়ংকর": 6497,
      "সন্ত্রাস": 6498,
      "বক্তৃতা": 6499,
      "বিজে": 6500,
      "সর্বপ্রথম": 6501,
      "গোড়া": 6502,
      "গ্রামী": 6503,
      "পশ্চিমা": 6504,
      "মাতার": 6505,
      "লৌ": 6506,
      "পিয়া": 6507,
      "তাৎপর্য": 6508,
      "আরবি": 6509,
      "মন্ড": 6510,
      "দেয়নি": 6511,
      "ূল": 6512,
      "খেজুর": 6513,
      "জাতীয়তা": 6514,
      "০০৯": 6515,
      "কুফ": 6516,
      "পুড়ে": 6517,
      "রবিন": 6518,
      "দাড়া": 6519,
      "য়েন": 6520,
      "তনের": 6521,
      "স্তফা": 6522,
      "ন্দিত": 6523,
      "ব্যক্তিরা": 6524,
      "কৌশলী": 6525,
      "দৃশ": 6526,
      "নিষেধা": 6527,
      "খবরের": 6528,
      "ধিল": 6529,
      "আক্তার": 6530,
      "১০৭": 6531,
      "বার্ট": 6532,
      "মেধা": 6533,
      "কেন্দ্রের": 6534,
      "আদর": 6535,
      "গাঁও": 6536,
      "জামায়াত": 6537,
      "হাকিম": 6538,
      "মাতে": 6539,
      "যাবো": 6540,
      "নদীতে": 6541,
      "ন্ম": 6542,
      "শ্বশুর": 6543,
      "পরিস্থিতির": 6544,
      "বিজ": 6545,
      "জরুরী": 6546,
      "বিরাজ": 6547,
      "বিংশ": 6548,
      "গাছে": 6549,
      "ওয়েবসাই": 6550,
      "প্রাণের": 6551,
      "ওরে": 6552,
      "অধিবেশ": 6553,
      "কেশ": 6554,
      "মালের": 6555,
      "শ্যাম": 6556,
      "সেজ": 6557,
      "সৃষ্ট": 6558,
      "বাগানে": 6559,
      "১০৩": 6560,
      "চালান": 6561,
      "ংক": 6562,
      "ডিম": 6563,
      "পুণ": 6564,
      "কোনটি": 6565,
      "পাখির": 6566,
      "বাহ্য": 6567,
      "মঞ্জ": 6568,
      "ফিরি": 6569,
      "কেয়া": 6570,
      "দীপ্ত": 6571,
      "শিষ্য": 6572,
      "এতটুকু": 6573,
      "ঢুকতে": 6574,
      "করিতেন": 6575,
      "বানানো": 6576,
      "তলে": 6577,
      "বেজে": 6578,
      "পঁ": 6579,
      "বাক্স": 6580,
      "পদা": 6581,
      "ওয়েস্ট": 6582,
      "আলেম": 6583,
      "দেবের": 6584,
      "ছিন্ন": 6585,
      "রেগে": 6586,
      "সূচনা": 6587,
      "দেও": 6588,
      "জারা": 6589,
      "রাবী": 6590,
      "দফা": 6591,
      "মন্ত্রি": 6592,
      "উভয়ে": 6593,
      "নেতার": 6594,
      "দায়ক": 6595,
      "শাস্তির": 6596,
      "অস": 6597,
      "রোহিঙ্গা": 6598,
      "ফোনের": 6599,
      "কাবা": 6600,
      "লল": 6601,
      "অর্জনের": 6602,
      "পর্ণ": 6603,
      "র্ধ্ব": 6604,
      "বার্থে": 6605,
      "৮৮৮": 6606,
      "বট": 6607,
      "সেদিকে": 6608,
      "মাছের": 6609,
      "ম্বে": 6610,
      "খলীফা": 6611,
      "মাপ": 6612,
      "ছক": 6613,
      "ভাগের": 6614,
      "বাইবেল": 6615,
      "পকেটে": 6616,
      "বাতাসে": 6617,
      "আজাদ": 6618,
      "পাকিস্তানি": 6619,
      "সিস্টে": 6620,
      "১০৫": 6621,
      "রায়রা": 6622,
      "কিছ": 6623,
      "সামর্থ": 6624,
      "গাম": 6625,
      "চ্যালেঞ্জ": 6626,
      "স্তব্ধ": 6627,
      "কমেছে": 6628,
      "আচার": 6629,
      "টাক": 6630,
      "িতা": 6631,
      "মনী": 6632,
      "ইম": 6633,
      "আমরাও": 6634,
      "র্ড": 6635,
      "নিরাপত্তার": 6636,
      "আধা": 6637,
      "চিক": 6638,
      "রহমত": 6639,
      "বাদি": 6640,
      "নৃত্য": 6641,
      "পৌঁছা": 6642,
      "হুমায়": 6643,
      "রিয়ার": 6644,
      "পুরুষদের": 6645,
      "ফারুক": 6646,
      "শেদ": 6647,
      "আসছেন": 6648,
      "ম্যাচের": 6649,
      "আধ্যাত্": 6650,
      "সুষ্ঠ": 6651,
      "সেবার": 6652,
      "যাহার": 6653,
      "সকলকে": 6654,
      "আজকে": 6655,
      "সোভিয়েত": 6656,
      "বাগানের": 6657,
      "দুরে": 6658,
      "যজ্ঞ": 6659,
      "সেনাবাহিনীর": 6660,
      "উড়িয়ে": 6661,
      "পন্থা": 6662,
      "প্রথমত": 6663,
      "খন্ড": 6664,
      "উপরের": 6665,
      "বিদ্বে": 6666,
      "তর্": 6667,
      "চায়ের": 6668,
      "মার্ক": 6669,
      "করিতেছে": 6670,
      "্যারে": 6671,
      "একদা": 6672,
      "ভারে": 6673,
      "জানাল": 6674,
      "নেবেন": 6675,
      "খেলায়": 6676,
      "গোলে": 6677,
      "জিং": 6678,
      "উসমান": 6679,
      "মাইক্রো": 6680,
      "পাইল": 6681,
      "হয়েই": 6682,
      "হোসেনের": 6683,
      "দ্ধে": 6684,
      "োদ": 6685,
      "বাপের": 6686,
      "বার্ত": 6687,
      "সমূহে": 6688,
      "পর্যবেক্ষণ": 6689,
      "বস্ত্র": 6690,
      "গম্ভীর": 6691,
      "সস": 6692,
      "মাখ": 6693,
      "দামে": 6694,
      "ইউপি": 6695,
      "যুক্তির": 6696,
      "শট": 6697,
      "কোমল": 6698,
      "চৌধুর": 6699,
      "১১৮": 6700,
      "প্রকৃতপক্ষে": 6701,
      "কোনে": 6702,
      "পরিবর্তনের": 6703,
      "বিদেশী": 6704,
      "সংশয়": 6705,
      "আখ্যা": 6706,
      "রাখিয়া": 6707,
      "ক্ষণা": 6708,
      "ভোটার": 6709,
      "নামতে": 6710,
      "ডিজিটাল": 6711,
      "পূর্ববর্তী": 6712,
      "তনে": 6713,
      "রাদিয়া": 6714,
      "ঐক্য": 6715,
      "ফেলবে": 6716,
      "পাল্টা": 6717,
      "মাধ্যমিক": 6718,
      "কশন": 6719,
      "আতি": 6720,
      "ঘুষ": 6721,
      "বাণ": 6722,
      "মুখটা": 6723,
      "বিতর্": 6724,
      "ষষ্ঠ": 6725,
      "সভাপতিত্বে": 6726,
      "গোবিন্দ": 6727,
      "আসবেন": 6728,
      "কোট": 6729,
      "অবহিত": 6730,
      "সংস্কৃতির": 6731,
      "্ি": 6732,
      "উপার্": 6733,
      "দিবেন": 6734,
      "কাঠি": 6735,
      "নির্মাণের": 6736,
      "ইসলামে": 6737,
      "বিদ্রোহ": 6738,
      "পুস্তক": 6739,
      "ম্মা": 6740,
      "ব্যাক": 6741,
      "আখি": 6742,
      "দিবা": 6743,
      "পড়িয়া": 6744,
      "হলুদ": 6745,
      "শুনিয়া": 6746,
      "ক্লাবের": 6747,
      "কিয়ামতের": 6748,
      "সুখী": 6749,
      "সহযোগি": 6750,
      "দেবো": 6751,
      "অনেকগুলো": 6752,
      "প্রবাসী": 6753,
      "নিয়োজিত": 6754,
      "লক্ষ্মী": 6755,
      "মসজিদের": 6756,
      "এরশাদ": 6757,
      "সৌভাগ্য": 6758,
      "খাট": 6759,
      "নিশ্চিন্ত": 6760,
      "অনুগ্রহ": 6761,
      "স্রো": 6762,
      "মানো": 6763,
      "হরে": 6764,
      "স্বর্গ": 6765,
      "হকের": 6766,
      "সঙ্গীত": 6767,
      "ট্রিক": 6768,
      "হাকী": 6769,
      "অপেক্ষায়": 6770,
      "বিজ্ঞানী": 6771,
      "লাগিলেন": 6772,
      "সরকারকে": 6773,
      "বেকার": 6774,
      "ট্রাই": 6775,
      "বাড়তি": 6776,
      "ীর্ণ": 6777,
      "ভেন": 6778,
      "প্রবাহিত": 6779,
      "ম্বরের": 6780,
      "সন্ধ্যার": 6781,
      "ফেডারে": 6782,
      "পর্যালো": 6783,
      "আগুনে": 6784,
      "হউক": 6785,
      "উপস্থিতি": 6786,
      "উন্মুক্ত": 6787,
      "নাগাদ": 6788,
      "হিল": 6789,
      "আড়াল": 6790,
      "আসমান": 6791,
      "লাক": 6792,
      "ডিগ্রি": 6793,
      "হতি": 6794,
      "সাগরে": 6795,
      "ঢুকল": 6796,
      "আড্ড": 6797,
      "প্রতিশোধ": 6798,
      "জন্মগ্রহণ": 6799,
      "মজার": 6800,
      "পালি": 6801,
      "ডেভি": 6802,
      "বিশ্বস্ত": 6803,
      "লোহার": 6804,
      "নবু": 6805,
      "রাজত্ব": 6806,
      "পূর্বের": 6807,
      "স্পর্": 6808,
      "খতি": 6809,
      "দাদ": 6810,
      "২০০৯": 6811,
      "লুট": 6812,
      "সত্তা": 6813,
      "যুর": 6814,
      "বর্ষণ": 6815,
      "ফন": 6816,
      "থাকতেন": 6817,
      "মহাসচিব": 6818,
      "শান্তির": 6819,
      "মণ্ডল": 6820,
      "অগ্রা": 6821,
      "সম্পৃক্ত": 6822,
      "উপেক্ষা": 6823,
      "নিয়েছিল": 6824,
      "নেশা": 6825,
      "যেতেই": 6826,
      "থান": 6827,
      "বর্জন": 6828,
      "নিমি": 6829,
      "ইয়ার": 6830,
      "সাজানো": 6831,
      "মিনিটের": 6832,
      "নাগ": 6833,
      "আতা": 6834,
      "কর্মকর্তাদের": 6835,
      "মমতা": 6836,
      "ঘুমো": 6837,
      "অমর": 6838,
      "তর্ক": 6839,
      "রও": 6840,
      "উন্ড": 6841,
      "অভিমত": 6842,
      "মারতে": 6843,
      "এনেছে": 6844,
      "মাজ": 6845,
      "১০৬": 6846,
      "মোটে": 6847,
      "প্রদানের": 6848,
      "কাজটি": 6849,
      "রূপান্তর": 6850,
      "গিয়েছিলাম": 6851,
      "ইতো": 6852,
      "কতো": 6853,
      "চ্যুত": 6854,
      "পাহারা": 6855,
      "ন্র": 6856,
      "অধিকতর": 6857,
      "হ্র": 6858,
      "স্বার্থে": 6859,
      "ডিক": 6860,
      "রক্তের": 6861,
      "ল্যান্ডের": 6862,
      "কীয়": 6863,
      "পানা": 6864,
      "দেবীর": 6865,
      "কাক": 6866,
      "ত্রু": 6867,
      "ছেলেদের": 6868,
      "নবাব": 6869,
      "ক্লি": 6870,
      "পাতার": 6871,
      "খ্যাতি": 6872,
      "ক্রিয়ার": 6873,
      "ফিরতে": 6874,
      "প্রতিক": 6875,
      "ব্রহ্ম": 6876,
      "বয়সের": 6877,
      "কিনতে": 6878,
      "ধির": 6879,
      "কবিতার": 6880,
      "পার্থিব": 6881,
      "শক": 6882,
      "জীবনী": 6883,
      "সার্বিক": 6884,
      "নিঃসন্দেহে": 6885,
      "সিঁড়ি": 6886,
      "চাদর": 6887,
      "মেয়েটির": 6888,
      "নেহ": 6889,
      "যিল": 6890,
      "চলুন": 6891,
      "সিরিজ": 6892,
      "প্রাপ্য": 6893,
      "ঝামেলা": 6894,
      "সদস্যের": 6895,
      "সংরক্ষিত": 6896,
      "নিবেশ": 6897,
      "সাও": 6898,
      "গ্রহে": 6899,
      "পেরেছে": 6900,
      "খাড়া": 6901,
      "পুত্রের": 6902,
      "পরবর্তীতে": 6903,
      "দড়ি": 6904,
      "আত্মার": 6905,
      "রাঙা": 6906,
      "সংসারে": 6907,
      "সুখের": 6908,
      "ভেট": 6909,
      "ইউএন": 6910,
      "সদ্য": 6911,
      "বধূ": 6912,
      "বস্তুত": 6913,
      "পরিস্থিতিতে": 6914,
      "মুশরিক": 6915,
      "রাশিয়ার": 6916,
      "রয়": 6917,
      "মুহা": 6918,
      "পোড়া": 6919,
      "পিস্তল": 6920,
      "আশী": 6921,
      "কুরাই": 6922,
      "দুঃখের": 6923,
      "গুরুতৃ": 6924,
      "খন্দ": 6925,
      "স্তরের": 6926,
      "অন্ন": 6927,
      "পিসি": 6928,
      "ভাগা": 6929,
      "মেহ": 6930,
      "একু": 6931,
      "বসেছে": 6932,
      "জঙ্গল": 6933,
      "অতপর": 6934,
      "ূন": 6935,
      "রোমান": 6936,
      "মৎ": 6937,
      "সারণ": 6938,
      "ভালোই": 6939,
      "সন্তানদের": 6940,
      "বলেনঃ": 6941,
      "কংগ্রেস": 6942,
      "লারা": 6943,
      "মুকা": 6944,
      "সীরে": 6945,
      "শিয়ে": 6946,
      "ইকবাল": 6947,
      "শপ": 6948,
      "মনুষ": 6949,
      "যতটা": 6950,
      "প্রত্যাহার": 6951,
      "করানো": 6952,
      "হয়েছিলো": 6953,
      "সম্মানিত": 6954,
      "মালয়ে": 6955,
      "নাথের": 6956,
      "মুজি": 6957,
      "খাটো": 6958,
      "শিল্পের": 6959,
      "বাড়তে": 6960,
      "অপূর্ব": 6961,
      "দাঁড়াল": 6962,
      "প্তা": 6963,
      "জনতা": 6964,
      "অভিহিত": 6965,
      "স্টের": 6966,
      "আশায়": 6967,
      "বোতল": 6968,
      "হেফা": 6969,
      "দূরত্ব": 6970,
      "উন্নয়নের": 6971,
      "টনের": 6972,
      "তিনবার": 6973,
      "ক্তা": 6974,
      "মথ": 6975,
      "হাবী": 6976,
      "ছুঃ": 6977,
      "আনসার": 6978,
      "ঘাঁ": 6979,
      "স্তো": 6980,
      "ওয়াই": 6981,
      "চলন": 6982,
      "মিলিয়ন": 6983,
      "ঠান্ডা": 6984,
      "চিং": 6985,
      "চলি": 6986,
      "আতঙ্": 6987,
      "জৈ": 6988,
      "ওদিক": 6989,
      "চাইলেন": 6990,
      "প্রকৌশলী": 6991,
      "২০০৮": 6992,
      "উত্তা": 6993,
      "বহির্": 6994,
      "ঐতিহাসিক": 6995,
      "ছুড়ে": 6996,
      "বঙ্": 6997,
      "জামি": 6998,
      "শরীক": 6999,
      "জান্নাতে": 7000,
      "পারস্": 7001,
      "মুসলমানের": 7002,
      "তত্ত্": 7003,
      "বৈশা": 7004,
      "খুশী": 7005,
      "ট্রো": 7006,
      "ক্ষের": 7007,
      "কুমিল্লা": 7008,
      "রেড": 7009,
      "বেচে": 7010,
      "রাজনীতির": 7011,
      "০০৭": 7012,
      "মাথাটা": 7013,
      "মলে": 7014,
      "শিগ": 7015,
      "তৌ": 7016,
      "অলৌকিক": 7017,
      "ষ্টির": 7018,
      "কমলা": 7019,
      "মোগ": 7020,
      "ভ্যান": 7021,
      "দার্শ": 7022,
      "পরায়ণ": 7023,
      "বিকৃত": 7024,
      "হার্য": 7025,
      "আবদ্ধ": 7026,
      "ানক": 7027,
      "তিত": 7028,
      "কোষ": 7029,
      "স্টেডিয়া": 7030,
      "জনৈক": 7031,
      "ম্পের": 7032,
      "ঢেলে": 7033,
      "রোজা": 7034,
      "এছাড়াও": 7035,
      "জ্ঞানী": 7036,
      "যাওয়ায়": 7037,
      "যাহারা": 7038,
      "সংঘর্ষ": 7039,
      "চুক্তির": 7040,
      "য়ানা": 7041,
      "ফুলে": 7042,
      "আগামীকাল": 7043,
      "ংরা": 7044,
      "সুষ্ঠু": 7045,
      "০০৫": 7046,
      "নকল": 7047,
      "উত্তেজনা": 7048,
      "আধ্যাত্মিক": 7049,
      "মিং": 7050,
      "পেত": 7051,
      "গড়িয়ে": 7052,
      "বেরু": 7053,
      "পরিবর্তিত": 7054,
      "প্যারি": 7055,
      "বিবেক": 7056,
      "কেড়ে": 7057,
      "চেন": 7058,
      "বিপদের": 7059,
      "বসি": 7060,
      "গুলিকে": 7061,
      "লারের": 7062,
      "ভাষণ": 7063,
      "জরিমানা": 7064,
      "মামুন": 7065,
      "প্রযোজ্য": 7066,
      "দুষ্ট": 7067,
      "নিকে": 7068,
      "কর্তৃপক্ষের": 7069,
      "জাহাজের": 7070,
      "এগুলোর": 7071,
      "মর্ম": 7072,
      "অবহে": 7073,
      "সাম্প্রতিক": 7074,
      "সঞ্চয়": 7075,
      "ছাত্রী": 7076,
      "ওয়েল": 7077,
      "চ্যানেল": 7078,
      "শরণ": 7079,
      "বাহাদুর": 7080,
      "জনাব": 7081,
      "ন্ব": 7082,
      "মুহূর্তের": 7083,
      "ঝাড়": 7084,
      "বুড়ি": 7085,
      "আমারও": 7086,
      "ল্য": 7087,
      "খারি": 7088,
      "কিতে": 7089,
      "দৌড়": 7090,
      "টিপ": 7091,
      "জানত": 7092,
      "আলিম": 7093,
      "ণ্ডে": 7094,
      "প্রশস্ত": 7095,
      "তুল্য": 7096,
      "তারপরও": 7097,
      "পর্বে": 7098,
      "গণে": 7099,
      "মারী": 7100,
      "সিড": 7101,
      "মন্দিরের": 7102,
      "দুশ": 7103,
      "ধরেই": 7104,
      "নিই": 7105,
      "সংজ্ঞা": 7106,
      "সরি": 7107,
      "স্বাগত": 7108,
      "কামরা": 7109,
      "কোম্পান": 7110,
      "মনোনীত": 7111,
      "যোজন": 7112,
      "প্রজ্ঞা": 7113,
      "অজ্ঞ": 7114,
      "সম্মুখীন": 7115,
      "জানতাম": 7116,
      "ুয়া": 7117,
      "বাঙ্গা": 7118,
      "ফেরেশতা": 7119,
      "হিং": 7120,
      "সমে": 7121,
      "থাকুক": 7122,
      "তুচ্ছ": 7123,
      "স্থগিত": 7124,
      "বরের": 7125,
      "দারী": 7126,
      "ছলে": 7127,
      "চরিত্রের": 7128,
      "বিবাহের": 7129,
      "ছিড়ে": 7130,
      "চশ": 7131,
      "সাদে": 7132,
      "০১১": 7133,
      "বিজয়ের": 7134,
      "গভর্নর": 7135,
      "সুন্নাত": 7136,
      "খুঁজ": 7137,
      "জানতেন": 7138,
      "আরবের": 7139,
      "আলমগীর": 7140,
      "অমুক": 7141,
      "ধরিয়ে": 7142,
      "সভ্যতার": 7143,
      "গতির": 7144,
      "হৃদয়ে": 7145,
      "তাকালেন": 7146,
      "ছড়ি": 7147,
      "কদিন": 7148,
      "শুনানি": 7149,
      "৮০৪": 7150,
      "মজুম": 7151,
      "রেডিও": 7152,
      "রাসু": 7153,
      "পেছনের": 7154,
      "সমাবেশে": 7155,
      "অধ্যয়ন": 7156,
      "বাদশা": 7157,
      "খস": 7158,
      "জালা": 7159,
      "জায়গাটা": 7160,
      "নিয়েছিলেন": 7161,
      "০০০০০০০০০০০০০০০০": 7162,
      "কাটি": 7163,
      "নন্": 7164,
      "বিত্ত": 7165,
      "পেটের": 7166,
      "পাশেই": 7167,
      "সিদ্": 7168,
      "ছিন": 7169,
      "পরিবারে": 7170,
      "সমাধি": 7171,
      "প্রকাশ্য": 7172,
      "তুমিই": 7173,
      "পাড়ায়": 7174,
      "নয়া": 7175,
      "ন্নত": 7176,
      "প্রশাসনের": 7177,
      "প্রদর্শনী": 7178,
      "জিনিয়ার": 7179,
      "মাসি": 7180,
      "শুটিং": 7181,
      "উপত্য": 7182,
      "খাবারের": 7183,
      "বসার": 7184,
      "করুণা": 7185,
      "গানে": 7186,
      "তাওহী": 7187,
      "করিত": 7188,
      "খাও": 7189,
      "ঁড়া": 7190,
      "উচ্ছ": 7191,
      "তাজ": 7192,
      "বেহে": 7193,
      "যতো": 7194,
      "ভৃ": 7195,
      "পার্ক": 7196,
      "নুর": 7197,
      "সত্যতা": 7198,
      "ত্বেও": 7199,
      "সমিতি": 7200,
      "গারের": 7201,
      "প্রেরণা": 7202,
      "রিকশা": 7203,
      "ংশে": 7204,
      "|,": 7205,
      "পনি": 7206,
      "চরিত্রে": 7207,
      "ভাষ্য": 7208,
      "প্রণাম": 7209,
      "বসন্ত": 7210,
      "সপ্তম": 7211,
      "জ্যাক": 7212,
      "চৌধুরীর": 7213,
      "লঘু": 7214,
      "নাধিল": 7215,
      "পালনের": 7216,
      "আদর্": 7217,
      "পাচ্ছেন": 7218,
      "সাস": 7219,
      "মেরি": 7220,
      "খলিফা": 7221,
      "সহসভাপতি": 7222,
      "কতে": 7223,
      "দুজনকে": 7224,
      "ক্রোধ": 7225,
      "উপযোগী": 7226,
      "ভূল": 7227,
      "হোয়া": 7228,
      "যাইবে": 7229,
      "তুলল": 7230,
      "গলি": 7231,
      "্বা": 7232,
      "সেটার": 7233,
      "কীর্ত": 7234,
      "তত্ত্বাব": 7235,
      "হিংসা": 7236,
      "অটো": 7237,
      "আঙ্": 7238,
      "এবারে": 7239,
      "রংপুর": 7240,
      "নির্দেশে": 7241,
      "গ্রিক": 7242,
      "কাশ্": 7243,
      "গ্রাস": 7244,
      "গৌরব": 7245,
      "শনা": 7246,
      "রৌ": 7247,
      "সপ্তাহের": 7248,
      "ঘ্ব": 7249,
      "কাঁদ": 7250,
      "নিস": 7251,
      "ধাপ": 7252,
      "দিনী": 7253,
      "পৌছা": 7254,
      "থিয়ে": 7255,
      "আসছি": 7256,
      "শিপ": 7257,
      "ওয়ানা": 7258,
      "াঁ": 7259,
      "চুপি": 7260,
      "প্রথমেই": 7261,
      "সাবধানে": 7262,
      "উপায়ে": 7263,
      "নট": 7264,
      "বলছ": 7265,
      "মালিকের": 7266,
      "স্টেশনে": 7267,
      "ওয়্যার": 7268,
      "মানুষদের": 7269,
      "ভোরে": 7270,
      "টিটি": 7271,
      "মেয়াদ": 7272,
      "গরিব": 7273,
      "সোসিয়ে": 7274,
      "ফেটে": 7275,
      "পালিত": 7276,
      "পেয়েছিল": 7277,
      "মালেক": 7278,
      "হাসিনার": 7279,
      "বুত": 7280,
      "ভয়ানক": 7281,
      "মাদের": 7282,
      "আলু": 7283,
      "টানে": 7284,
      "জনসংখ্যা": 7285,
      "মতবাদ": 7286,
      "আদায়ের": 7287,
      "বিস্মিত": 7288,
      "োধন": 7289,
      "য়েক": 7290,
      "বাজা": 7291,
      "এতটা": 7292,
      "চরা": 7293,
      "র্ধ": 7294,
      "শিয়ান": 7295,
      "তাহাদিগকে": 7296,
      "কাহ": 7297,
      "অপরিহার্য": 7298,
      "লীন": 7299,
      "ততক্ষণ": 7300,
      "লেখাপড়া": 7301,
      "একটুও": 7302,
      "মতী": 7303,
      "পত্রিকায়": 7304,
      "হান্": 7305,
      "দক্ষতা": 7306,
      "্যাস": 7307,
      "্ে": 7308,
      "হুরায়রা": 7309,
      "উপরোক্ত": 7310,
      "সিকিউ": 7311,
      "প্রত্যেকের": 7312,
      "বন্ধুদের": 7313,
      "অপারেশন": 7314,
      "কৃত্রি": 7315,
      "সূর্যের": 7316,
      "ন্তর": 7317,
      "দক্ষিণে": 7318,
      "য়ায়": 7319,
      "দেখবেন": 7320,
      "লাওয়াত": 7321,
      "জনী": 7322,
      "০১৮": 7323,
      "যাত্রার": 7324,
      "ণায়": 7325,
      "দারিদ্র": 7326,
      "বনি": 7327,
      "বদর": 7328,
      "দুদ": 7329,
      "লিগ": 7330,
      "কারাদণ্ড": 7331,
      "মাইয়া": 7332,
      "সীমান": 7333,
      "বরিশাল": 7334,
      "মূর্ত": 7335,
      "আবহাওয়া": 7336,
      "অসীম": 7337,
      "লজ্": 7338,
      "অভাবে": 7339,
      "অংশীদার": 7340,
      "ধরেছে": 7341,
      "আদৌ": 7342,
      "পাবার": 7343,
      "সম্মতি": 7344,
      "অফিসের": 7345,
      "সংলগ্ন": 7346,
      "প্রভাবিত": 7347,
      "নিষ্ঠুর": 7348,
      "সাধনা": 7349,
      "অমনি": 7350,
      "বিষ্ট": 7351,
      "উল্লেখ্য": 7352,
      "বেশিরভাগ": 7353,
      "নেত্র": 7354,
      "পিন": 7355,
      "কলম": 7356,
      "গহ": 7357,
      "সেটাও": 7358,
      "জাহান্নাম": 7359,
      "ণ্ত": 7360,
      "রসুল": 7361,
      "জঙ্গলে": 7362,
      "গল্পের": 7363,
      "কোর্টের": 7364,
      "উদ্বোধ": 7365,
      "পাওনা": 7366,
      "ফান": 7367,
      "হাসে": 7368,
      "ঝুঁকে": 7369,
      "কেটের": 7370,
      "জমিতে": 7371,
      "মানবাধিকার": 7372,
      "ফাতি": 7373,
      "্যায়ন": 7374,
      "প্রত্যাশা": 7375,
      "আক্রমণের": 7376,
      "ইচ্ছ": 7377,
      "ময়না": 7378,
      "প্রেমে": 7379,
      "সাহসী": 7380,
      "দেখছেন": 7381,
      "পনেরো": 7382,
      "ফাইনালে": 7383,
      "নিঃশ্বাস": 7384,
      "রোম": 7385,
      "কাগজের": 7386,
      "ফাইল": 7387,
      "পাতায়": 7388,
      "মং": 7389,
      "ব্যান্ড": 7390,
      "সত্বেও": 7391,
      "্ডের": 7392,
      "বিএস": 7393,
      "প্রীতি": 7394,
      "দুর্য": 7395,
      "উইকেটে": 7396,
      "নৃতন": 7397,
      "লঙ্কা": 7398,
      "মিশকাত": 7399,
      "দাল": 7400,
      "ধানের": 7401,
      "মিড": 7402,
      "ব্যাটিং": 7403,
      "লাও": 7404,
      "ষ্ক": 7405,
      "দাঁড়িয়েছে": 7406,
      "নিয়েছি": 7407,
      "পারস্পরিক": 7408,
      "মেসি": 7409,
      "শুনা": 7410,
      "নিয়ন্ত্রণে": 7411,
      "গুনা": 7412,
      "পরিশ্রম": 7413,
      "চলমান": 7414,
      "মনোর": 7415,
      "পাউ": 7416,
      "রোগী": 7417,
      "সালমান": 7418,
      "মূসা": 7419,
      "জাতিকে": 7420,
      "আবা": 7421,
      "মুসলমানরা": 7422,
      "অভিযুক্ত": 7423,
      "গুণে": 7424,
      "ঈমানদার": 7425,
      "নকশা": 7426,
      "রাধা": 7427,
      "১৪৪": 7428,
      "তদন্তের": 7429,
      "শিগগির": 7430,
      "ুলে": 7431,
      "ক্ষণাৎ": 7432,
      "ক্রমা": 7433,
      "অক": 7434,
      "জামাই": 7435,
      "ইউরোপের": 7436,
      "এজেন্ট": 7437,
      "প্রদেশ": 7438,
      "ন্সের": 7439,
      "বিচারে": 7440,
      "জান্নাত": 7441,
      "বালু": 7442,
      "পারবো": 7443,
      "ট্রাম্প": 7444,
      "মল্": 7445,
      "জগত": 7446,
      "নগদ": 7447,
      "প্রভুর": 7448,
      "চত্ব": 7449,
      "বাট": 7450,
      "উড়": 7451,
      "মনটা": 7452,
      "বানান": 7453,
      "বিশেষত": 7454,
      "গ্রেফতার": 7455,
      "শস্য": 7456,
      "চিল": 7457,
      "যিহোবা": 7458,
      "গেলেই": 7459,
      "পারতাম": 7460,
      "ষো": 7461,
      "জিও": 7462,
      "টম": 7463,
      "কার্যালয়ের": 7464,
      "রবীন্দ্র": 7465,
      "প্রবাহ": 7466,
      "বস্তুর": 7467,
      "সর্বাধিক": 7468,
      "রুটি": 7469,
      "রইলেন": 7470,
      "প্রদায়": 7471,
      "নিকটবর্তী": 7472,
      "জিনিসের": 7473,
      "স্টু": 7474,
      "ঘটবে": 7475,
      "তোরা": 7476,
      "মুক্তিযুদ্ধের": 7477,
      "ফরাসি": 7478,
      "উৎসাহিত": 7479,
      "উকি": 7480,
      "উদ্যোক্ত": 7481,
      "বৃন্দ": 7482,
      "চিকিৎসার": 7483,
      "ভিল": 7484,
      "পুরাতন": 7485,
      "বিজ্ঞপ্তি": 7486,
      "খ্রী": 7487,
      "খাতা": 7488,
      "সময়েই": 7489,
      "ইহাতে": 7490,
      "লীতে": 7491,
      "মালে": 7492,
      "প্রশাসনিক": 7493,
      "কোনোদিন": 7494,
      "মহিলাদের": 7495,
      "ধর্মে": 7496,
      "ইবা": 7497,
      "হোম": 7498,
      "গ্রুপের": 7499,
      "বংশধর": 7500,
      "ফেসবুক": 7501,
      "বহাল": 7502,
      "দাসের": 7503,
      "শুকিয়ে": 7504,
      "সশস্ত্র": 7505,
      "রাত্র": 7506,
      "দীড়াল": 7507,
      "লাইনের": 7508,
      "সেঞ্চ": 7509,
      "ফটো": 7510,
      "আল্লাহু": 7511,
      "ঞ্জে": 7512,
      "ততক্ষণে": 7513,
      "মেলার": 7514,
      "প্রকাশ্যে": 7515,
      "মাজাহ": 7516,
      "দর্শনের": 7517,
      "হেদা": 7518,
      "্যক্ত": 7519,
      "মুয়া": 7520,
      "ভিজে": 7521,
      "আফ্রিকার": 7522,
      "সুক": 7523,
      "ঞ্জের": 7524,
      "বক্তব্যে": 7525,
      "রাদিয়াল্লাহু": 7526,
      "সমবেত": 7527,
      "ওয়ানডে": 7528,
      "অর্জুন": 7529,
      "শুনলাম": 7530,
      "নারীকে": 7531,
      "পাটি": 7532,
      "ছবিটি": 7533,
      "হরতাল": 7534,
      "প্রেমিক": 7535,
      "একত্রিত": 7536,
      "জাতিসংঘের": 7537,
      "ফিলিস্তি": 7538,
      "সেলিম": 7539,
      "মনকে": 7540,
      "বাড়ীতে": 7541,
      "সামলে": 7542,
      "নির্জন": 7543,
      "কেঁদে": 7544,
      "গর্ব": 7545,
      "ধরিয়া": 7546,
      "মঞ্চে": 7547,
      "১১৫": 7548,
      "খাদ": 7549,
      "কারখানার": 7550,
      "বাইবে": 7551,
      "মিলনায়": 7552,
      "ফেললেন": 7553,
      "ঢুকিয়ে": 7554,
      "নোয়া": 7555,
      "সম্পাদনা": 7556,
      "১১৩": 7557,
      "সর্বনাশ": 7558,
      "হিতা": 7559,
      "পরিবেশন": 7560,
      "মদীনায়": 7561,
      "টিম": 7562,
      "বোঝার": 7563,
      "পূর্ণাঙ্গ": 7564,
      "শতাধিক": 7565,
      "মত্ত": 7566,
      "জাতের": 7567,
      "উদাস": 7568,
      "নেবার": 7569,
      "উদয়": 7570,
      "সড়কে": 7571,
      "সংসদের": 7572,
      "টুর্": 7573,
      "উপাধি": 7574,
      "কলিকা": 7575,
      "গড": 7576,
      "কাও": 7577,
      "জ্বালা": 7578,
      "দেননি": 7579,
      "নানান": 7580,
      "বিপ্লব": 7581,
      "ঙের": 7582,
      "দেখাচ্ছে": 7583,
      "অরণ": 7584,
      "হাতপা": 7585,
      "হাসির": 7586,
      "সেক্রে": 7587,
      "আসছিল": 7588,
      "কমান্ডার": 7589,
      "চিতি": 7590,
      "পলা": 7591,
      "আন্দোলনে": 7592,
      "পিং": 7593,
      "সাথেই": 7594,
      "দোকানের": 7595,
      "বিল্": 7596,
      "দ্রে": 7597,
      "খালিদ": 7598,
      "দাশ": 7599,
      "দারো": 7600,
      "্থান": 7601,
      "নিসা": 7602,
      "হাটতে": 7603,
      "অনুসারী": 7604,
      "পড়েছি": 7605,
      "ধুলো": 7606,
      "ইসি": 7607,
      "ম্যাক": 7608,
      "জিম্": 7609,
      "পুরু": 7610,
      "তাকেই": 7611,
      "ধুয়ে": 7612,
      "ফুঁ": 7613,
      "থাকিবে": 7614,
      "ব্যাংকিং": 7615,
      "তরণ": 7616,
      "লিয়ান": 7617,
      "অভিযানে": 7618,
      "জানালার": 7619,
      "ডাকাত": 7620,
      "পরিপ্রেক্ষিতে": 7621,
      "মাসউদ": 7622,
      "গুড": 7623,
      "অঙ্গীকার": 7624,
      "লীলা": 7625,
      "কায়েম": 7626,
      "কৃত্রিম": 7627,
      "বনা": 7628,
      "সভ্যতা": 7629,
      "সংসদে": 7630,
      "আযাব": 7631,
      "দাঁড়ায়": 7632,
      "চমকা": 7633,
      "সেগুলোর": 7634,
      "যাতা": 7635,
      "বুঝলাম": 7636,
      "পাইনি": 7637,
      "প্রতিপক্ষ": 7638,
      "গঠনিক": 7639,
      "সৌর": 7640,
      "ভালোবাসার": 7641,
      "হং": 7642,
      "আনের": 7643,
      "সম্ভাব্য": 7644,
      "প্রাত": 7645,
      "আখেরা": 7646,
      "কমপ্লে": 7647,
      "কথিত": 7648,
      "হিসেব": 7649,
      "পাপের": 7650,
      "কাটার": 7651,
      "সাদের": 7652,
      "নিয়েও": 7653,
      "নিহিত": 7654,
      "বড়ই": 7655,
      "উদ্বেগ": 7656,
      "শীলতা": 7657,
      "দোর": 7658,
      "ধরেন": 7659,
      "ওরফে": 7660,
      "সেটাকে": 7661,
      "বহুল": 7662,
      "ভূক্ত": 7663,
      "বোঝে": 7664,
      "চওড়া": 7665,
      "চেঁ": 7666,
      "ক্ষীণ": 7667,
      "টেলিভিশন": 7668,
      "ইলে": 7669,
      "্ডে": 7670,
      "ছন্দের": 7671,
      "নিষেধাজ্ঞা": 7672,
      "চিত্রে": 7673,
      "শোনো": 7674,
      "বিবেচনায়": 7675,
      "ন্্র": 7676,
      "ঘোষণার": 7677,
      "দ্বীপের": 7678,
      "দাদার": 7679,
      "কোটা": 7680,
      "ক্তিক": 7681,
      "মোজা": 7682,
      "স্ট্যা": 7683,
      "নুরুল": 7684,
      "বলীর": 7685,
      "ঘটা": 7686,
      "ওঠেন": 7687,
      "সাংগঠনিক": 7688,
      "ফখ": 7689,
      "অ্যাল": 7690,
      "আকৃতি": 7691,
      "অভিনেতা": 7692,
      "প্রাতি": 7693,
      "প্যারা": 7694,
      "কেবলমাত্র": 7695,
      "দহ": 7696,
      "এএফ": 7697,
      "চেহারার": 7698,
      "বাণিজ্যিক": 7699,
      "খাচ্ছে": 7700,
      "বলেছিলাম": 7701,
      "বঙ্গের": 7702,
      "জানের": 7703,
      "ব্রের": 7704,
      "আসত": 7705,
      "রোদ": 7706,
      "লতি": 7707,
      "মুরা": 7708,
      "সংক্ষেপে": 7709,
      "পাতের": 7710,
      "পাড়ে": 7711,
      "তং": 7712,
      "সাকিব": 7713,
      "চারটে": 7714,
      "ভুমি": 7715,
      "সম্বন্ধ": 7716,
      "সমঝো": 7717,
      "টুর্নামে": 7718,
      "দার্শনিক": 7719,
      "অবসান": 7720,
      "লিমিটেড": 7721,
      "সিদ্দি": 7722,
      "কুন": 7723,
      "ৰা": 7724,
      "আয়ের": 7725,
      "ূলক": 7726,
      "দুদিন": 7727,
      "জোটের": 7728,
      "দেশকে": 7729,
      "ুই": 7730,
      "উদ্ধৃতি": 7731,
      "অস্পষ্ট": 7732,
      "থমকে": 7733,
      "জীবনকে": 7734,
      "বাবুকে": 7735,
      "সাতটি": 7736,
      "দ্বীনের": 7737,
      "নোংরা": 7738,
      "নক্ষত্র": 7739,
      "পিএ": 7740,
      "ডিয়ার": 7741,
      "দেয়ালে": 7742,
      "ওগুলো": 7743,
      "বেধে": 7744,
      "আসনের": 7745,
      "শার্": 7746,
      "চারে": 7747,
      "তীর্থ": 7748,
      "অজ": 7749,
      "বাস্তবে": 7750,
      "ছয়টি": 7751,
      "জানুয়ার": 7752,
      "হায়া": 7753,
      "শার্ট": 7754,
      "তথাপি": 7755,
      "বাসীরা": 7756,
      "রার": 7757,
      "একটাই": 7758,
      "শোনে": 7759,
      "মামার": 7760,
      "ময়দানে": 7761,
      "ইতিবাচক": 7762,
      "হুদ": 7763,
      "হলের": 7764,
      "০১৯": 7765,
      "লার্": 7766,
      "ব্যবস্থাপক": 7767,
      "বিভ্রান্ত": 7768,
      "কাঁচা": 7769,
      "ঘেরা": 7770,
      "প্রাণে": 7771,
      "পণে": 7772,
      "কর্মে": 7773,
      "নিঃশব্দে": 7774,
      "ঝরে": 7775,
      "সুনাম": 7776,
      "প্রদেশের": 7777,
      "হাতটা": 7778,
      "সার্থ": 7779,
      "ক্যামেরা": 7780,
      "তোদের": 7781,
      "ছাদ": 7782,
      "জামিন": 7783,
      "শনি": 7784,
      "বিষয়বস্তু": 7785,
      "ছিটকে": 7786,
      "বলু": 7787,
      "অনুগত": 7788,
      "সন্তোষ": 7789,
      "প্রতিমন্ত্রী": 7790,
      "হাহা": 7791,
      "জীবনযাপন": 7792,
      "ছেলেরা": 7793,
      "ততো": 7794,
      "ভারা": 7795,
      "শামী": 7796,
      "সিংহের": 7797,
      "সামগ্রী": 7798,
      "একাই": 7799,
      "ওভারে": 7800,
      "রোগের": 7801,
      "জং": 7802,
      "পড়লাম": 7803,
      "সন্ধানে": 7804,
      "রিয়াল": 7805,
      "চেয়েছিল": 7806,
      "ত্মা": 7807,
      "চন্দ": 7808,
      "উপাচার্য": 7809,
      "০২": 7810,
      "সাজিয়ে": 7811,
      "খনি": 7812,
      "প্লি": 7813,
      "আস্": 7814,
      "য্য": 7815,
      "দান্ত": 7816,
      "ঘটনাটি": 7817,
      "হিট": 7818,
      "সোয়া": 7819,
      "ময়লা": 7820,
      "বোঝাতে": 7821,
      "ভাবনার": 7822,
      "স্ট্রা": 7823,
      "১৮৮": 7824,
      "তৎক্ষণাৎ": 7825,
      "ফাউন্ডে": 7826,
      "বিধা": 7827,
      "উঠো": 7828,
      "কুমারী": 7829,
      "পাকিস্তানে": 7830,
      "বাজেট": 7831,
      "১১৬": 7832,
      "ক্রিকেটার": 7833,
      "গ্রামীণ": 7834,
      "তুমিও": 7835,
      "শেক": 7836,
      "সার্চ": 7837,
      "ভির": 7838,
      "যাদু": 7839,
      "মেঝেতে": 7840,
      "সানা": 7841,
      "তামি": 7842,
      "চাপে": 7843,
      "কমিয়ে": 7844,
      "ডক্টর": 7845,
      "তায়ালার": 7846,
      "রাখবেন": 7847,
      "ফ্রান্সিস": 7848,
      "স্বপ্নের": 7849,
      "প্রদায়িক": 7850,
      "দব": 7851,
      "রুকু": 7852,
      "অভ্যন্তরীণ": 7853,
      "আত্মহত্যা": 7854,
      "কয়েকবার": 7855,
      "রোঃ": 7856,
      "ংকা": 7857,
      "শীর": 7858,
      "ক্ষুব্ধ": 7859,
      "মৌসুমে": 7860,
      "করপোরেশনের": 7861,
      "দয়ে": 7862,
      "টাইম": 7863,
      "আহসান": 7864,
      "পত্রিকার": 7865,
      "মেশিন": 7866,
      "জর্জ": 7867,
      "ারের": 7868,
      "স্কর": 7869,
      "আসর": 7870,
      "পরপর": 7871,
      "সংস্কৃত": 7872,
      "লাঞ্": 7873,
      "ভাবছি": 7874,
      "নয": 7875,
      "আফগান": 7876,
      "শও": 7877,
      "প্রদীপ": 7878,
      "্ু": 7879,
      "থামিয়ে": 7880,
      "জামায়াতের": 7881,
      "ছাগল": 7882,
      "স্থাপনের": 7883,
      "দৈর্ঘ": 7884,
      "অ্যাসোসিয়ে": 7885,
      "হাউস": 7886,
      "নাহি": 7887,
      "বড়ে": 7888,
      "ক্ষেত্রেও": 7889,
      "ঝল": 7890,
      "বায়ক": 7891,
      "সংসারের": 7892,
      "নড়": 7893,
      "পলায়": 7894,
      "খড়": 7895,
      "িি": 7896,
      "দুনিয়ায়": 7897,
      "লেনদে": 7898,
      "ব্যাটা": 7899,
      "বিলুপ্ত": 7900,
      "পশ্চিমে": 7901,
      "বসলেন": 7902,
      "সীমিত": 7903,
      "্রের": 7904,
      "সারাদিন": 7905,
      "লালন": 7906,
      "জালাল": 7907,
      "ণ্ট": 7908,
      "ভালই": 7909,
      "হূ": 7910,
      "লর্ড": 7911,
      "নিউজি": 7912,
      "আহলে": 7913,
      "হাফ": 7914,
      "চিন্তিত": 7915,
      "মুনি": 7916,
      "শুল্ক": 7917,
      "বন্ট": 7918,
      "পড়াশোনা": 7919,
      "মুর্": 7920,
      "বশত": 7921,
      "যশো": 7922,
      "পরশু": 7923,
      "সার্বভৌ": 7924,
      "পিটার": 7925,
      "খত": 7926,
      "ঘুরতে": 7927,
      "আইনি": 7928,
      "পাল্লা": 7929,
      "৮১০": 7930,
      "হৃদয়ের": 7931,
      "অনেকদিন": 7932,
      "মুক্তিযুদ্ধ": 7933,
      "সাম্রাজ্যের": 7934,
      "ক্ষেত্রেই": 7935,
      "প্রতিযোগিতায়": 7936,
      "পাঁন": 7937,
      "শুনলে": 7938,
      "জপ": 7939,
      "কাপড়ের": 7940,
      "সাম্প্রদায়িক": 7941,
      "রাগে": 7942,
      "ইসলামিক": 7943,
      "বিগত": 7944,
      "কষ্টে": 7945,
      "ডিসি": 7946,
      "স্টক": 7947,
      "বাড়াতে": 7948,
      "নাড়ল": 7949,
      "দুর্বৃত্ত": 7950,
      "দিনাজ": 7951,
      "জয়ন্ত": 7952,
      "জাঁ": 7953,
      "খ্রিস্টা": 7954,
      "চ্ছিলাম": 7955,
      "বিধানের": 7956,
      "উৎসবের": 7957,
      "হট": 7958,
      "পরিচ্ছেদ": 7959,
      "ধাতু": 7960,
      "একইভাবে": 7961,
      "হাস্য": 7962,
      "দলটি": 7963,
      "একশো": 7964,
      "চেনে": 7965,
      "অস্ট্রেলিয়ার": 7966,
      "বোলিং": 7967,
      "ফেলি": 7968,
      "পোষা": 7969,
      "ঘুমের": 7970,
      "আর্জে": 7971,
      "জঙ্গলের": 7972,
      "হস্তে": 7973,
      "ডিস": 7974,
      "পেরেছি": 7975,
      "কমিউনিস্ট": 7976,
      "রিন": 7977,
      "জাহান্নামের": 7978,
      "টুই": 7979,
      "সম্মিলিত": 7980,
      "চিন্তায়": 7981,
      "লোকটাকে": 7982,
      "সিনিয়র": 7983,
      "মাখা": 7984,
      "ক্কার": 7985,
      "দিতেই": 7986,
      "বিষয়টা": 7987,
      "প্রকাণ্ড": 7988,
      "মৃত্যুবরণ": 7989,
      "প্রণয়ন": 7990,
      "লোকজনের": 7991,
      "চিরকাল": 7992,
      "ইঞ্জিনিয়ার": 7993,
      "মুখা": 7994,
      "্বী": 7995,
      "এতই": 7996,
      "স্রা": 7997,
      "রাকআত": 7998,
      "ফিরিয়া": 7999,
      "নামটা": 8000,
      "হামলায়": 8001,
      "প্রতিজ্ঞা": 8002,
      "প্রবৃত্ত": 8003,
      "বইটি": 8004,
      "উল্লা": 8005,
      "তত্": 8006,
      "ব্লা": 8007,
      "ছেলেটি": 8008,
      "দেবতার": 8009,
      "বাধ্যতা": 8010,
      "আর্কাই": 8011,
      "ক্লো": 8012,
      "নজরে": 8013,
      "মনা": 8014,
      "তাওবা": 8015,
      "খুঁজতে": 8016,
      "নিজেরা": 8017,
      "ইসহাক": 8018,
      "পাহাড়ে": 8019,
      "পাবলিক": 8020,
      "২০০৭": 8021,
      "সার্ভিস": 8022,
      "বান্ধব": 8023,
      "প্রবণতা": 8024,
      "ব্যভি": 8025,
      "নিশ্বাস": 8026,
      "উইল": 8027,
      "প্রাচীর": 8028,
      "নারের": 8029,
      "স্বরাষ্ট্র": 8030,
      "চিনে": 8031,
      "আইসি": 8032,
      "জানাই": 8033,
      "মজুমদার": 8034,
      "ময়ের": 8035,
      "রহিত": 8036,
      "বিভাগীয়": 8037,
      "আফগানিস্ত": 8038,
      "অসুবিধে": 8039,
      "পর্যালোচনা": 8040,
      "পশুর": 8041,
      "ধার্": 8042,
      "গুলে": 8043,
      "রান্": 8044,
      "আবী": 8045,
      "এা": 8046,
      "্যান্ডে": 8047,
      "০০৩": 8048,
      "এমপি": 8049,
      "্যান্স": 8050,
      "ব্যতিক্রম": 8051,
      "খুত": 8052,
      "ল্লাল্লাহু": 8053,
      "ষ্ঠা": 8054,
      "উত্তো": 8055,
      "মিজান": 8056,
      "ৰি": 8057,
      "জোড়": 8058,
      "সম্বোধন": 8059,
      "পরিধান": 8060,
      "সফট": 8061,
      "ক্রমেই": 8062,
      "এক্সচে": 8063,
      "মনুষ্য": 8064,
      "খাম": 8065,
      "অশ্রু": 8066,
      "ডলারের": 8067,
      "চেয়েছিলেন": 8068,
      "বিজ্ঞাপন": 8069,
      "রেখেছিল": 8070,
      "ওঁর": 8071,
      "ছাত্রদের": 8072,
      "হ্রা": 8073,
      "প্রত্যেকটি": 8074,
      "নগরী": 8075,
      "গান্ধী": 8076,
      "পুরী": 8077,
      "ধক": 8078,
      "শঙ্": 8079,
      "নাতি": 8080,
      "প্রতিরক্ষা": 8081,
      "মোস্তা": 8082,
      "ুদ্ধ": 8083,
      "দশকে": 8084,
      "আমন্ত্রণ": 8085,
      "তাবস্থায়": 8086,
      "মৃতদেহ": 8087,
      "থাকছে": 8088,
      "তৃণ": 8089,
      "জনার": 8090,
      "চরণে": 8091,
      "খবরে": 8092,
      "মাঝা": 8093,
      "নারি": 8094,
      "দুর্বলতা": 8095,
      "চেষ্টার": 8096,
      "বিবেচিত": 8097,
      "শঙ্কর": 8098,
      "শিখা": 8099,
      "গুরুতৃপূর্ণ": 8100,
      "মারিয়া": 8101,
      "বাঙালী": 8102,
      "য়নের": 8103,
      "রঙ্গ": 8104,
      "খ্য": 8105,
      "ডঃ": 8106,
      "বলছিল": 8107,
      "চোরা": 8108,
      "মেহের": 8109,
      "সবগুলো": 8110,
      "নুস": 8111,
      "ইনিংস": 8112,
      "ফাল": 8113,
      "পাকে": 8114,
      "পাগলা": 8115,
      "১৯১": 8116,
      "বারক": 8117,
      "দ্বীপে": 8118,
      "ওখান": 8119,
      "হিদা": 8120,
      "থো": 8121,
      "খাস্ত": 8122,
      "খ্রিস্টান": 8123,
      "কক্সবাজার": 8124,
      "ভবে": 8125,
      "তীয়া": 8126,
      "পুটি": 8127,
      "কখনই": 8128,
      "পারের": 8129,
      "সাহিত্যিক": 8130,
      "অর্ডার": 8131,
      "করিলাম": 8132,
      "যৌক্তিক": 8133,
      "উপনীত": 8134,
      "প্রতিরো": 8135,
      "ধায়ক": 8136,
      "হয়ো": 8137,
      "উল্লেখিত": 8138,
      "মদীনা": 8139,
      "ট্রাইব্যু": 8140,
      "রফ": 8141,
      "ঠিত": 8142,
      "মোহর": 8143,
      "চেয়ারপার": 8144,
      "এতক্ষণে": 8145,
      "অধ্যক্ষ": 8146,
      "পরিবেশে": 8147,
      "১১৭": 8148,
      "বিধবা": 8149,
      "পেয়েছিলেন": 8150,
      "খুজে": 8151,
      "হুই": 8152,
      "তওবা": 8153,
      "য়িত": 8154,
      "পুর্ব": 8155,
      "২০০১": 8156,
      "অভিভাবক": 8157,
      "ঘটতে": 8158,
      "পদ্ধতির": 8159,
      "ততই": 8160,
      "পিট": 8161,
      "আঘাতে": 8162,
      "মেয়েটার": 8163,
      "কণ্ঠস্বর": 8164,
      "অক্ষর": 8165,
      "ক্রমাগত": 8166,
      "চাহিয়া": 8167,
      "ভাবছে": 8168,
      "ত্ন": 8169,
      "প্রতিপালক": 8170,
      "থর": 8171,
      "প্রচারিত": 8172,
      "জাহাজে": 8173,
      "জড়ো": 8174,
      "বিয়ার": 8175,
      "আরোহণ": 8176,
      "প্রত্যাবর্তন": 8177,
      "স্বামীকে": 8178,
      "ঘূ": 8179,
      "২০০০": 8180,
      "কমপক্ষে": 8181,
      "স্টিক": 8182,
      "ডর": 8183,
      "চঞ্চল": 8184,
      "বিলে": 8185,
      "আইয়": 8186,
      "নবীন": 8187,
      "চাইবে": 8188,
      "চিশ": 8189,
      "জনিত": 8190,
      "স্বর্": 8191,
      "নানার": 8192,
      "স্নাত": 8193,
      "জঘ": 8194,
      "ইঞ্চি": 8195,
      "উত্থা": 8196,
      ")),": 8197,
      "এশিয়ার": 8198,
      "ইসলামকে": 8199,
      "পরনে": 8200,
      "সেজন্য": 8201,
      "আতের": 8202,
      "আইনশৃঙ্খলা": 8203,
      "সম্পাদন": 8204,
      "বোঝাই": 8205,
      "প্রতিবাদে": 8206,
      "তেমনই": 8207,
      "যেগুলো": 8208,
      "থাকতো": 8209,
      "দুর্গা": 8210,
      "একশ": 8211,
      "গেয়ে": 8212,
      "বসতি": 8213,
      "শায়খ": 8214,
      "তুলেছে": 8215,
      "ওটার": 8216,
      "ফেরেশ": 8217,
      "হাঁটতে": 8218,
      "বাংলাদেশকে": 8219,
      "জ্বলে": 8220,
      "অজু": 8221,
      "যোগদান": 8222,
      "মদি": 8223,
      "পাননি": 8224,
      "স্তিক": 8225,
      "পুরোহিত": 8226,
      "সমর্থক": 8227,
      "সম্য": 8228,
      "আনুষ্ঠানিক": 8229,
      "এগারো": 8230,
      "বরকত": 8231,
      "নাটকের": 8232,
      "ানন্দ": 8233,
      "ছুঁড়ে": 8234,
      "ডোর": 8235,
      "ঘাস": 8236,
      "ব্যবস্থায়": 8237,
      "গরীব": 8238,
      "অভিশাপ": 8239,
      "বিআর": 8240,
      "প্রথমবারের": 8241,
      "ণ্ডের": 8242,
      "প্রহরী": 8243,
      "ইন্টারনেট": 8244,
      "অর্থমন্ত্রী": 8245,
      "মোশার": 8246,
      "টাঙ্গা": 8247,
      "শীতের": 8248,
      "অভিষে": 8249,
      "তুর্": 8250,
      "গাঢ়": 8251,
      "উঠা": 8252,
      "খোজ": 8253,
      "বিরতি": 8254,
      "ভৈ": 8255,
      "উদ্ধৃত": 8256,
      "আমানত": 8257,
      "বর্ষে": 8258,
      "প্রতিষ্ঠাতা": 8259,
      "ধম": 8260,
      "বালিকা": 8261,
      "আগ্": 8262,
      "ইউনিট": 8263,
      "মোস্তফা": 8264,
      "চাপিয়ে": 8265,
      "চৈতন": 8266,
      "অসুখ": 8267,
      "প্রাসাদ": 8268,
      "পৈ": 8269,
      "ওয়াদা": 8270,
      "লাকে": 8271,
      "কেঁপে": 8272,
      "জুতো": 8273,
      "ফারে": 8274,
      "ঘটছে": 8275,
      "আর্কাইভ": 8276,
      "ুলের": 8277,
      "কোরআনের": 8278,
      "শফিক": 8279,
      "সাফল্যের": 8280,
      "সাহিত্যে": 8281,
      "চলছিল": 8282,
      "শখ": 8283,
      "শীর্ষক": 8284,
      "খবরটা": 8285,
      "তরের": 8286,
      "নামূলক": 8287,
      "নেতি": 8288,
      "তারের": 8289,
      "ছাদে": 8290,
      "অধিদপ্তরের": 8291,
      "তুলিয়া": 8292,
      "ভালোবাস": 8293,
      "পুরাণ": 8294,
      "মানতে": 8295,
      "সুসংবাদ": 8296,
      "ওয়ার্ক": 8297,
      "পরিচালনার": 8298,
      "মাদ্রাসা": 8299,
      "পুত": 8300,
      "ঘোষিত": 8301,
      "তাফসীরে": 8302,
      "কাসে": 8303,
      "তারেক": 8304,
      "নীচের": 8305,
      "ধিকারী": 8306,
      "একলা": 8307,
      "ঘাড়ে": 8308,
      "আচমকা": 8309,
      "মূর্": 8310,
      "সহায়ক": 8311,
      "প্রকারের": 8312,
      "বর্ণের": 8313,
      "ঘটল": 8314,
      "ইরান": 8315,
      "প্রতিষ্ঠানে": 8316,
      "দেখব": 8317,
      "সীমানা": 8318,
      "সায়ী": 8319,
      "নর্": 8320,
      "লাইব্রের": 8321,
      "ইমামের": 8322,
      "গয়": 8323,
      "বিদ্যালয়ে": 8324,
      "আহ্বায়ক": 8325,
      "রাখুন": 8326,
      "কোরো": 8327,
      "প্রশং": 8328,
      "মুহুর্তে": 8329,
      "বান্দার": 8330,
      "গালে": 8331,
      "একত্রে": 8332,
      "আবিষ্": 8333,
      "বাড়ীর": 8334,
      "শামিল": 8335,
      "আত্মসমর্পণ": 8336,
      "্রো": 8337,
      "একপর্যায়ে": 8338,
      "বলিয়াছেন": 8339,
      "ন্ডে": 8340,
      "বন্যা": 8341,
      "দুঃখিত": 8342,
      "র্যাব": 8343,
      "অন্তরের": 8344,
      "রাজের": 8345,
      "পশ": 8346,
      "গবেষণার": 8347,
      "বেলার": 8348,
      "আলোচিত": 8349,
      "দ্ধার": 8350,
      "ময়মনসিংহ": 8351,
      "চরি": 8352,
      "মেট": 8353,
      "ধ্যে": 8354,
      "সেরকম": 8355,
      "বিপর্যয়": 8356,
      "কাতা": 8357,
      "বুদ": 8358,
      "নিবেদন": 8359,
      "স্থাপনা": 8360,
      "জিনিসটা": 8361,
      "অস্বস্তি": 8362,
      "চিকিৎস": 8363,
      "সাউ": 8364,
      "নাসির": 8365,
      "হিন্দ": 8366,
      "বাহুল": 8367,
      "মোল্লা": 8368,
      "ইয়াহু": 8369,
      "প্রভাবে": 8370,
      "ছাড়ে": 8371,
      "িম": 8372,
      "রতন": 8373,
      "বাহিরে": 8374,
      "ডব্": 8375,
      "এন্ড": 8376,
      "কোলা": 8377,
      "মৃত্যুদণ্ড": 8378,
      "সুনান": 8379,
      "মন্দিরে": 8380,
      "স্লো": 8381,
      "দাই": 8382,
      "মহৎ": 8383,
      "খুনের": 8384,
      "বসানো": 8385,
      "বললেই": 8386,
      "আধিপত্য": 8387,
      "থাকুন": 8388,
      "আমারই": 8389,
      "তারপরে": 8390,
      "মধ্যবর্তী": 8391,
      "কেনার": 8392,
      "ফর্ম": 8393,
      "টকা": 8394,
      "বিলম্বে": 8395,
      "তাকায়": 8396,
      "আশু": 8397,
      "লারি": 8398,
      "অপরদিকে": 8399,
      "দেখলেই": 8400,
      "বাঃ": 8401,
      "আশপাশের": 8402,
      "কতটুকু": 8403,
      "ঘটেছিল": 8404,
      "কড়ি": 8405,
      "দস্ত": 8406,
      "দিয়": 8407,
      "কোয়ার্": 8408,
      "বৈচিত্র": 8409,
      "অপছন্দ": 8410,
      "দশম": 8411,
      "খুলতে": 8412,
      "বাড়ানো": 8413,
      "ভাঙচুর": 8414,
      "ধারণার": 8415,
      "ছুটতে": 8416,
      "গোনা": 8417,
      "সহসা": 8418,
      "নিশ": 8419,
      "ছুটির": 8420,
      "কষ": 8421,
      "দিলেও": 8422,
      "য়াম": 8423,
      "লিপিবদ্ধ": 8424,
      "প্রতাপ": 8425,
      "শ্রেণি": 8426,
      "সর্দার": 8427,
      "লেস": 8428,
      "খৃষ্টান": 8429,
      "প্রতিদান": 8430,
      "পুজা": 8431,
      "বরফ": 8432,
      "বক্তব্যের": 8433,
      "ঈন": 8434,
      "স্থিতিতে": 8435,
      "গুলোও": 8436,
      "বাড়ে": 8437,
      "ঝড়ের": 8438,
      "পিপি": 8439,
      "আশ্বাস": 8440,
      "নির্ভরশীল": 8441,
      "সংখ্যায়": 8442,
      "হানীফা": 8443,
      "ছলেন": 8444,
      "বলছিলেন": 8445,
      "মাত্রায়": 8446,
      "আপিল": 8447,
      "কর্মকর্তার": 8448,
      "নির্ণয়": 8449,
      "গাড়িটা": 8450,
      "শিউ": 8451,
      "মাসিক": 8452,
      "জ্জনক": 8453,
      "ফিয়া": 8454,
      "পস": 8455,
      "রাখো": 8456,
      "জান্নাতের": 8457,
      "বন্ধুত্ব": 8458,
      "কোনদিন": 8459,
      "ওয়াশিং": 8460,
      "রাক্ষ": 8461,
      "তীহার": 8462,
      "মিলনায়তনে": 8463,
      "ভালোভাবে": 8464,
      "মুশকিল": 8465,
      "ত্রুটি": 8466,
      "দাকে": 8467,
      "শুভে": 8468,
      "বিশ্বকাপে": 8469,
      "ইহাই": 8470,
      "মানী": 8471,
      "ফাঁকা": 8472,
      "চট্টগ্রামে": 8473,
      "বুঝিতে": 8474,
      "্ডি": 8475,
      "ওদেরকে": 8476,
      "নিও": 8477,
      "সওয়ার": 8478,
      "শিবির": 8479,
      "পরিচিতি": 8480,
      "ভূমিক": 8481,
      "প্রসন্ন": 8482,
      "ঘোরা": 8483,
      "ষ্টাব্দে": 8484,
      "তাহাই": 8485,
      "হয়েও": 8486,
      "তরুণী": 8487,
      "হিংস": 8488,
      "প্রণা": 8489,
      "১১০০": 8490,
      "স্টেট": 8491,
      "বিপ্লবী": 8492,
      "হিয়া": 8493,
      "পানীয়": 8494,
      "ভাইকে": 8495,
      "বিনাশ": 8496,
      "কাধে": 8497,
      "লেখকের": 8498,
      "তৎপরতা": 8499,
      "পাতলা": 8500,
      "বোধের": 8501,
      "হোটেলের": 8502,
      "মুজিবুর": 8503,
      "উপমহা": 8504,
      "গতভাবে": 8505,
      "মুহম্মদ": 8506,
      "বিআই": 8507,
      "ধার্য": 8508,
      "দায়িত্বে": 8509,
      "উলা": 8510,
      "ঐতিহ্য": 8511,
      "পরিদর্শন": 8512,
      "বাক্যে": 8513,
      "দানা": 8514,
      "ব্যবসায়ীদের": 8515,
      "বোর": 8516,
      "মাছি": 8517,
      "শিলা": 8518,
      "সীর": 8519,
      "যশোর": 8520,
      "নগরে": 8521,
      "বললুম": 8522,
      "হবি": 8523,
      "সন্ধে": 8524,
      "ফলের": 8525,
      "খাব": 8526,
      "করপোরেশন": 8527,
      "মালার": 8528,
      "ফরাসী": 8529,
      "গর্জন": 8530,
      "গর্ভে": 8531,
      "বুদ্ধির": 8532,
      "চুলের": 8533,
      "ধর্ষণ": 8534,
      "তাত": 8535,
      "বিদ্র": 8536,
      "ব্রহ্": 8537,
      "কংগ্রেসের": 8538,
      "নমুনা": 8539,
      "জ্জে": 8540,
      "প্রাণীর": 8541,
      "গ্ু": 8542,
      "মনির": 8543,
      "উৎপত্তি": 8544,
      "গুরুত্": 8545,
      "কাটে": 8546,
      "পুড়িয়ে": 8547,
      "অন্যত্র": 8548,
      "বগুড়া": 8549,
      "সামনেই": 8550,
      "হাঃ": 8551,
      "আযান": 8552,
      "অনুধা": 8553,
      "ইন্ডিয়া": 8554,
      "বেড়ায়": 8555,
      "৪০৪": 8556,
      "ছিস": 8557,
      "কর্তৃত্ব": 8558,
      "স্বীকৃত": 8559,
      "ইশারা": 8560,
      "কাদা": 8561,
      "বাড়বে": 8562,
      "ওপরের": 8563,
      "চার্জ": 8564,
      "স্নান": 8565,
      "নাযিল": 8566,
      "তত্ত্ব": 8567,
      "পব": 8568,
      "উঠিয়ে": 8569,
      "পরাজয়": 8570,
      "সলাত": 8571,
      "নিছক": 8572,
      "পাড়ি": 8573,
      "ছাড়তে": 8574,
      "নিচ": 8575,
      "বিপজ্জনক": 8576,
      "নন্দ": 8577,
      "এসবের": 8578,
      "যুধি": 8579,
      "দামি": 8580,
      "যেতেন": 8581,
      "এবারও": 8582,
      "ম্যাজি": 8583,
      "কৃতজ্ঞতা": 8584,
      "কেশন": 8585,
      "শীলন": 8586,
      "হিজর": 8587,
      "ভিউ": 8588,
      "অভিনেত্রী": 8589,
      "জীবন্ত": 8590,
      "সংকলন": 8591,
      "ক্ষতির": 8592,
      "শশী": 8593,
      "ময়ী": 8594,
      "রসিক": 8595,
      "মূল্যে": 8596,
      "শরীয়ত": 8597,
      "চরে": 8598,
      "পার্লা": 8599,
      "আফ্রিকা": 8600,
      "বিনষ্ট": 8601,
      "এজ": 8602,
      "এইবার": 8603,
      "অর্জিত": 8604,
      "অন্থ": 8605,
      "বাঘের": 8606,
      "পনার": 8607,
      "যতটুকু": 8608,
      "দরজাটা": 8609,
      "দুর্ঘটনায়": 8610,
      "জামান": 8611,
      "আকীদা": 8612,
      "ন্ডি": 8613,
      "ব্যবধান": 8614,
      "বিষয়গুলো": 8615,
      "জোগাড়": 8616,
      "ট্যাক্সি": 8617,
      "সুগন্ধ": 8618,
      "মোচন": 8619,
      "অষ্টম": 8620,
      "সীতা": 8621,
      "মুনাফিক": 8622,
      "পোকা": 8623,
      "ভাগ্যের": 8624,
      "এমতাবস্থায়": 8625,
      "বর্ণনাকারী": 8626,
      "ডেভিড": 8627,
      "জকে": 8628,
      "বৈদেশিক": 8629,
      "কাহিনি": 8630,
      "রোগীর": 8631,
      "রোনাল": 8632,
      "মাউ": 8633,
      "রিপোর্": 8634,
      "হেটে": 8635,
      "রোগে": 8636,
      "জ্বালানি": 8637,
      "খম": 8638,
      "আশীর্": 8639,
      "অপরাধে": 8640,
      "করণীয়": 8641,
      "অগ্রগতি": 8642,
      "দ্দা": 8643,
      "রিটি": 8644,
      "তুষার": 8645,
      "শর্তে": 8646,
      "পাঠানোর": 8647,
      "পরিচ্ছন্ন": 8648,
      "সুপ্রি": 8649,
      "দেখান": 8650,
      "বাড়িটা": 8651,
      "অতিবাহিত": 8652,
      "হুকু": 8653,
      "প্রশ্নে": 8654,
      "উদ্বোধনী": 8655,
      "পাঠ্য": 8656,
      "প্রশ্র": 8657,
      "ফিট": 8658,
      "হাওয়ার": 8659,
      "ভেতরের": 8660,
      "লিঙ্গ": 8661,
      "নেতাকর্মীদের": 8662,
      "দারুল": 8663,
      "ওহী": 8664,
      "মাত্রই": 8665,
      "কুয়াশা": 8666,
      "১৯৪": 8667,
      "ঘাম": 8668,
      "আবৃত্তি": 8669,
      "জগন্": 8670,
      "পাকের": 8671,
      "ভাবন": 8672,
      "মৎস্য": 8673,
      "তাতেই": 8674,
      "বুদ্ধিমান": 8675,
      "র্ণা": 8676,
      "এটুকু": 8677,
      "সেন্স": 8678,
      "টিউট": 8679,
      "সোসাই": 8680,
      "মিসর": 8681,
      "শিক্ষকদের": 8682,
      "ব্র্যা": 8683,
      "অপরিচিত": 8684,
      "একি": 8685,
      "কূলে": 8686,
      "নরে": 8687,
      "একাদশ": 8688,
      "ঘল": 8689,
      "বোট": 8690,
      "ঘ্র": 8691,
      "অভিযোগের": 8692,
      "যাতায়াত": 8693,
      "বাঞ্": 8694,
      "তাকালো": 8695,
      "অর্থনীতির": 8696,
      "ইন্টারন্যাশনাল": 8697,
      "দপ্তর": 8698,
      "চেহারায়": 8699,
      "জাহে": 8700,
      "হীহ": 8701,
      "ট্রেনে": 8702,
      "ডাম": 8703,
      "পদ্মা": 8704,
      "দাখিল": 8705,
      "প্রাইভেট": 8706,
      "ব্যবধানে": 8707,
      "র্ষের": 8708,
      "সমর": 8709,
      "পুরস্": 8710,
      "হতাশা": 8711,
      "গেন": 8712,
      "চীনা": 8713,
      "রওয়ানা": 8714,
      "টুপি": 8715,
      "আকৃষ্ট": 8716,
      "প্রতিফ": 8717,
      "আব্বা": 8718,
      "মাশরা": 8719,
      "দেয়ালের": 8720,
      "মাৎ": 8721,
      "একাকী": 8722,
      "বাসনা": 8723,
      "রেস্ট": 8724,
      "চেল": 8725,
      "ঝুলিয়ে": 8726,
      "কনে": 8727,
      "্যেস": 8728,
      "ীল": 8729,
      "০০০০০": 8730,
      "ভর্ত": 8731,
      "মাহা": 8732,
      "বাহুল্য": 8733,
      "সত্যিকার": 8734,
      "চিতা": 8735,
      "ঘটনাস্থলে": 8736,
      "অচেনা": 8737,
      "অনায়া": 8738,
      "বাড়িয়া": 8739,
      "হাসলেন": 8740,
      "দাউ": 8741,
      "সংকল্প": 8742,
      "এসপি": 8743,
      "এইরকম": 8744,
      "কর্মসূচির": 8745,
      "মক্কার": 8746,
      "অজ্ঞান": 8747,
      "দিস": 8748,
      "বারণ": 8749,
      "বিলম্ব": 8750,
      "হবেই": 8751,
      "ধরন": 8752,
      "উ্": 8753,
      "যৌবন": 8754,
      "স্ম": 8755,
      "পুলিশকে": 8756,
      "কিরা": 8757,
      "মর্যাদার": 8758,
      "শাক": 8759,
      "পটি": 8760,
      "সবের": 8761,
      "উদ্যোক্তা": 8762,
      "মাঝামাঝি": 8763,
      "বচ": 8764,
      "পৌরস": 8765,
      "শিয়াল": 8766,
      "নিশ্চয়তা": 8767,
      "দীর্ঘশ্বাস": 8768,
      "আড্ডা": 8769,
      "ইন্দো": 8770,
      "কণা": 8771,
      "অবাধ": 8772,
      "সাহাবায়ে": 8773,
      "সোহেল": 8774,
      "সংকীর্ণ": 8775,
      "্ডা": 8776,
      "ান্তে": 8777,
      "মেঘের": 8778,
      "লিয়াম": 8779,
      "ক্রিকেটে": 8780,
      "য়েড": 8781,
      "টেস্টে": 8782,
      "বিবৃতিতে": 8783,
      "ইন্স": 8784,
      "জ্জের": 8785,
      "পৌরসভার": 8786,
      "অভিযানের": 8787,
      "মেজাজ": 8788,
      "অনুসার": 8789,
      "অনন্য": 8790,
      "অপহরণ": 8791,
      "হতেন": 8792,
      "যানবাহন": 8793,
      "বাল্য": 8794,
      "পাঠাতে": 8795,
      "লাগলাম": 8796,
      "নিকৃষ্ট": 8797,
      "নামকরণ": 8798,
      "সালাতের": 8799,
      "আপাঁন": 8800,
      "ভেজা": 8801,
      "বুন": 8802,
      "করিয়াছিল": 8803,
      "ক্ষতিকর": 8804,
      "কম্প": 8805,
      "গ্রত": 8806,
      "প্রবৃদ্ধি": 8807,
      "অবতরণ": 8808,
      "দূতা": 8809,
      "সেলো": 8810,
      "লও": 8811,
      "ইলম": 8812,
      "স্তির": 8813,
      "রাসূলে": 8814,
      "প্রতিনিধ": 8815,
      "মুসার": 8816,
      "মাইকেল": 8817,
      "অন্তর্গত": 8818,
      "ভোটের": 8819,
      "এগ": 8820,
      "ুরের": 8821,
      "ভারসাম্য": 8822,
      "দেখেনি": 8823,
      "উন্নয়নে": 8824,
      "শুনেছেন": 8825,
      "সহানু": 8826,
      "পুনরু": 8827,
      "ঘাতের": 8828,
      "রহিল": 8829,
      "সিপা": 8830,
      "বাতাসের": 8831,
      "লাইয়া": 8832,
      "জঘন্য": 8833,
      "বাড়ানোর": 8834,
      "করিয়াছি": 8835,
      "কল্যাণের": 8836,
      "প্রতিপালকের": 8837,
      "ভূতের": 8838,
      "বান্ধ": 8839,
      "রুদ্র": 8840,
      "ঙ্গী": 8841,
      "নবম": 8842,
      "হাটে": 8843,
      "কুষ্টি": 8844,
      "দত": 8845,
      "ভাতা": 8846,
      "নৌকো": 8847,
      "বুজে": 8848,
      "ম্বাই": 8849,
      "কারক": 8850,
      "আহবান": 8851,
      "উকিল": 8852,
      "সংকেত": 8853,
      "যুবলী": 8854,
      "আঁকা": 8855,
      "টুক": 8856,
      "লোকটির": 8857,
      "মশা": 8858,
      "ব্ল্যা": 8859,
      "মলা": 8860,
      "টিস": 8861,
      "একটার": 8862,
      "টানতে": 8863,
      "২০০৬": 8864,
      "পান্": 8865,
      "নাফ": 8866,
      "অসৎ": 8867,
      "ঘাতিক": 8868,
      "ঠোট": 8869,
      "সুপ্রিম": 8870,
      "যেনো": 8871,
      "কয়েকদিন": 8872,
      "চিত্তে": 8873,
      "রিভল": 8874,
      "অতীতের": 8875,
      "মিশন": 8876,
      "হারুন": 8877,
      "রচনাবলী": 8878,
      "গাদা": 8879,
      "আভি": 8880,
      "রাইফেল": 8881,
      "নারীরা": 8882,
      "খন্দকার": 8883,
      "সংগী": 8884,
      "হইবার": 8885,
      "নিবন্ধন": 8886,
      "যুবতী": 8887,
      "বাকা": 8888,
      "ব্যানার": 8889,
      "এইখানে": 8890,
      "হস্তান্তর": 8891,
      "ধাপে": 8892,
      "পটু": 8893,
      "নেতাকর্মীরা": 8894,
      "নদ": 8895,
      "জন্তে": 8896,
      "মোটেও": 8897,
      "আতঙ্ক": 8898,
      "কাউন্সিলর": 8899,
      "বিদ্বেষ": 8900,
      "ইরানের": 8901,
      "আনন্দিত": 8902,
      "নির্যাতনের": 8903,
      "সংঘর্ষে": 8904,
      "ভীম": 8905,
      "তত্র": 8906,
      "মহল": 8907,
      "সংস্কারের": 8908,
      "ব্যবসায়ীরা": 8909,
      "আআ": 8910,
      "ছিত": 8911,
      "ইতস্ত": 8912,
      "ভ্রান্তি": 8913,
      "যুদ্ধা": 8914,
      "ঁদন": 8915,
      "ত্যের": 8916,
      "উনিশ": 8917,
      "্ণ": 8918,
      "নামল": 8919,
      "দেখাল": 8920,
      "অপবাদ": 8921,
      "সৈন্যদের": 8922,
      "সচি": 8923,
      "চিঠিতে": 8924,
      "আগত": 8925,
      "মূলে": 8926,
      "বড": 8927,
      "কিতাবুল": 8928,
      "হলি": 8929,
      "রশিদ": 8930,
      "লালের": 8931,
      "ভ্ত": 8932,
      "প্রচারের": 8933,
      "পরিত্যক্ত": 8934,
      "পিপা": 8935,
      "ধমক": 8936,
      "এমই": 8937,
      "পতনের": 8938,
      "সাধারণভাবে": 8939,
      "সিদ্ধান্তে": 8940,
      "গন্": 8941,
      "ক্রীত": 8942,
      "শতকরা": 8943,
      "দরে": 8944,
      "নিখোঁজ": 8945,
      "কজন": 8946,
      "লবণ": 8947,
      "কুব": 8948,
      "দিয়েছিলাম": 8949,
      "নিয়ত": 8950,
      "ওত": 8951,
      "যিয়া": 8952,
      "তৃমি": 8953,
      "নির্ভরযোগ্য": 8954,
      "জামে": 8955,
      "সুনির্দিষ্ট": 8956,
      "মোনা": 8957,
      "শ্বা": 8958,
      "দুটির": 8959,
      "মরার": 8960,
      "নাইট": 8961,
      "্ধ": 8962,
      "অক্ষম": 8963,
      "নফল": 8964,
      "বিগ": 8965,
      "সিঙ্গা": 8966,
      "তখনকার": 8967,
      "প্তিতে": 8968,
      "ফৌজ": 8969,
      "১১২": 8970,
      "অনুরূপভাবে": 8971,
      "পরিণাম": 8972,
      "অনুশীলন": 8973,
      "আকাঙ্": 8974,
      "পশ্চা": 8975,
      "কুরু": 8976,
      "বড্ড": 8977,
      "সারের": 8978,
      "প্রাঙ্গ": 8979,
      "যুক্তরাষ্ট্রে": 8980,
      "৩০৪": 8981,
      "স্কি": 8982,
      "কুলে": 8983,
      "কুলের": 8984,
      "ফোর্ড": 8985,
      "২০১৯": 8986,
      "পার্বত্য": 8987,
      "রেখেছি": 8988,
      "নাদে": 8989,
      "পর্যাপ্ত": 8990,
      "টার্স": 8991,
      "খাতুন": 8992,
      "টরি": 8993,
      "ক্যাম্প": 8994,
      "বৃদ্ধা": 8995,
      "বোলার": 8996,
      "ক্ষমতাসীন": 8997,
      "ব্যাধি": 8998,
      "তথায়": 8999,
      "সেঞ্চুরি": 9000,
      "সুন্নাহ": 9001,
      "কর্তার": 9002,
      "খুঁত": 9003,
      "তল্লা": 9004,
      "ঢাল": 9005,
      "জনগণকে": 9006,
      "চারিদিকে": 9007,
      "গ্রহণে": 9008,
      "ইংল্যান্ডের": 9009,
      "প্রভাবশালী": 9010,
      "আশি": 9011,
      "লোকেদের": 9012,
      "বাস্তবতা": 9013,
      "আশার": 9014,
      "বলবো": 9015,
      "আমেরিকায়": 9016,
      "জামায়াতে": 9017,
      "প্ট": 9018,
      "যির": 9019,
      "উম্মতের": 9020,
      "দিলেই": 9021,
      "যথাক্রমে": 9022,
      "কাজকর্ম": 9023,
      "১৪১": 9024,
      "সুধা": 9025,
      "০৫০": 9026,
      "ব্র্যান্ড": 9027,
      "আসলেই": 9028,
      "কবরের": 9029,
      "রাখলেন": 9030,
      "ফখরুল": 9031,
      "অপু": 9032,
      "একসাথে": 9033,
      "প্রিয়া": 9034,
      "দশটা": 9035,
      "ভিক্ষা": 9036,
      "ছাঁ": 9037,
      "পড়ুন": 9038,
      "মেন্টে": 9039,
      "প্রবেশের": 9040,
      "নতি": 9041,
      "কিমি": 9042,
      "অর্পণ": 9043,
      "দশকের": 9044,
      "থামল": 9045,
      "ঢাক": 9046,
      "সংখ্যান": 9047,
      "খিলাফ": 9048,
      "বাস্তবায়নের": 9049,
      "বুলিয়ে": 9050,
      "তফ": 9051,
      "পদত্যাগ": 9052,
      "ওয়ারি": 9053,
      "মধ্যকার": 9054,
      "মর্মে": 9055,
      "হচ্ছি": 9056,
      "মই": 9057,
      "বিবাদ": 9058,
      "পাচার": 9059,
      "কারখানায়": 9060,
      "ষণায়": 9061,
      "ংশের": 9062,
      "নীরবে": 9063,
      "আমীন": 9064,
      "দিবসে": 9065,
      "১০২": 9066,
      "কাটাতে": 9067,
      "লেখেন": 9068,
      "তন্ত্রের": 9069,
      "রিশ": 9070,
      "কপ": 9071,
      "নাড়া": 9072,
      "রাষ্ট্রদূত": 9073,
      "প্যাকেট": 9074,
      "খাস": 9075,
      "খোলার": 9076,
      "ধর্মী": 9077,
      "মুনাফা": 9078,
      "সম্মেলনের": 9079,
      "বিবর": 9080,
      "মানববন্ধন": 9081,
      "সেজে": 9082,
      "রিত": 9083,
      "ওয়ের": 9084,
      "সাপের": 9085,
      "ছট": 9086,
      "প্রবর্ত": 9087,
      "সুদের": 9088,
      "বিরক্তি": 9089,
      "অটোর": 9090,
      "নীতিমালা": 9091,
      "৪৮০": 9092,
      "হইতেই": 9093,
      "আপনিই": 9094,
      "সলি": 9095,
      "হস্তক্ষেপ": 9096,
      "রেডি": 9097,
      "শিখিয়ে": 9098,
      "খালা": 9099,
      "শব্দটা": 9100,
      "রাজ্জা": 9101,
      "নির্মা": 9102,
      "সিস্টেম": 9103,
      "গোলমাল": 9104,
      "চন্দ্রের": 9105,
      "কানি": 9106,
      "স্তু": 9107,
      "মুক্তা": 9108,
      "বাহিনীকে": 9109,
      "জয়া": 9110,
      "ইউএনও": 9111,
      "দর্শনে": 9112,
      "সৃজন": 9113,
      "এটার": 9114,
      "কিয়ামত": 9115,
      "দগ্ধ": 9116,
      "ভালবাস": 9117,
      "যতদিন": 9118,
      "জনতার": 9119,
      "ভট": 9120,
      "কর্মসং": 9121,
      "সন্দেহের": 9122,
      "রইলো": 9123,
      "কাশী": 9124,
      "রণে": 9125,
      "কর্মরত": 9126,
      "অগা": 9127,
      "ঠাকুরের": 9128,
      "সিনেমার": 9129,
      "ঁকে": 9130,
      "বিলের": 9131,
      "পুনরা": 9132,
      "রাজনীতিতে": 9133,
      "ক্ষুধা": 9134,
      "অচি": 9135,
      "আইপি": 9136,
      "ক্রটি": 9137,
      "যাত্রীদের": 9138,
      "ধ্বংসের": 9139,
      "ফাস": 9140,
      "কাচের": 9141,
      "আসন্ন": 9142,
      "ইনস্টিটিউট": 9143,
      "শ্রীলঙ্": 9144,
      "চক্রবর্তী": 9145,
      "নখ": 9146,
      "রাযি": 9147,
      "গরুর": 9148,
      "বদি": 9149,
      "দুর্যোগ": 9150,
      "নারায়ণগঞ্জ": 9151,
      "আবদুল্লাহ্": 9152,
      "মাধব": 9153,
      "পরবর্তীকালে": 9154,
      "ভাবী": 9155,
      "আশংকা": 9156,
      "উপার্জন": 9157,
      "জাগে": 9158,
      "পাল্টে": 9159,
      "সিডি": 9160,
      "রাতেই": 9161,
      "৬০৪": 9162,
      "ফাইনাল": 9163,
      "৭০০": 9164,
      "জাপানের": 9165,
      "জুলুম": 9166,
      "দুপুরের": 9167,
      "এক্ষণে": 9168,
      "ইহাদের": 9169,
      "বক্ষ": 9170,
      "সকালের": 9171,
      "ধ্র": 9172,
      "রাসায়": 9173,
      "এগোতে": 9174,
      "ফকির": 9175,
      "চমক": 9176,
      "এতি": 9177,
      "পেলো": 9178,
      "দেখলো": 9179,
      "সামর্থ্য": 9180,
      "বিমল": 9181,
      "বাঁল": 9182,
      "তন্ত": 9183,
      "রোগা": 9184,
      "চক্ষে": 9185,
      "৪৪৪": 9186,
      "ছিনতাই": 9187,
      "সিন্ধ": 9188,
      "দুজ্জামান": 9189,
      "ব্যাপারটি": 9190,
      "অহংকার": 9191,
      "রবের": 9192,
      "করছিলাম": 9193,
      "জোরা": 9194,
      "অবস্থানে": 9195,
      "চাকা": 9196,
      "ওপারে": 9197,
      "ব্যবসার": 9198,
      "ড্যা": 9199,
      "বাগের": 9200,
      "মাগ": 9201,
      "মিনের": 9202,
      "ইত্যাদির": 9203,
      "পড়িল": 9204,
      "গন্তব্য": 9205,
      "চেষ্টায়": 9206,
      "বলাই": 9207,
      "দাদু": 9208,
      "স্ট্যান্ড": 9209,
      "স্যাম": 9210,
      "গুণের": 9211,
      "রেখো": 9212,
      "মেহে": 9213,
      "নবা": 9214,
      "বলেনি": 9215,
      "১৩৪": 9216,
      "কারবার": 9217,
      "অপার": 9218,
      "উৎসর্গ": 9219,
      "উৎসবে": 9220,
      "পরোয়া": 9221,
      "করিতেছেন": 9222,
      "২৫০": 9223,
      "নিবিড়": 9224,
      "বাসেন": 9225,
      "শশ": 9226,
      "তাজা": 9227,
      "মেরু": 9228,
      "ঞ্জি": 9229,
      "সময়টা": 9230,
      "বানি": 9231,
      "আর্জেন্টি": 9232,
      "১৮১": 9233,
      "যেরূপ": 9234,
      "নিজেরাই": 9235,
      "মরতে": 9236,
      "হননি": 9237,
      "মাহবুব": 9238,
      "লভ": 9239,
      "রূপা": 9240,
      "ক্ষণিক": 9241,
      "আগ্রা": 9242,
      "সভাপতিত্ব": 9243,
      "কাঁধে": 9244,
      "ওরকম": 9245,
      "এ্যা": 9246,
      "পেলেই": 9247,
      "লেশ": 9248,
      "অটোরিক": 9249,
      "বিলাস": 9250,
      "বলেননি": 9251,
      "এক্ষু": 9252,
      "মক্কায়": 9253,
      "জিনিসপত্র": 9254,
      "স্বপ্নে": 9255,
      "এ০": 9256,
      "ঠু": 9257,
      "হিউ": 9258,
      "প্রতিভা": 9259,
      "বিক্রির": 9260,
      "গবেষক": 9261,
      "মেলো": 9262,
      "যেকোন": 9263,
      "ার্থী": 9264,
      "পুজো": 9265,
      "লাউ": 9266,
      "কাগজপত্র": 9267,
      "ছেলেমেয়ে": 9268,
      "উপাসনা": 9269,
      "পলায়ন": 9270,
      "বন্ড": 9271,
      "াল": 9272,
      "চন্দন": 9273,
      "১৯৮": 9274,
      "ছিনিয়ে": 9275,
      "১৮৪": 9276,
      "সফরের": 9277,
      "প্রার্থীর": 9278,
      "বাসু": 9279,
      "ইসমা": 9280,
      "ঘাটতি": 9281,
      "এসি": 9282,
      "নেস": 9283,
      "হুয়া": 9284,
      "অর্থবছরে": 9285,
      "ূহ": 9286,
      "উটের": 9287,
      "ফেলেন": 9288,
      "রুখ": 9289,
      "উদ্ভি": 9290,
      "স্তন": 9291,
      "নিমিত্ত": 9292,
      "আজই": 9293,
      "শনাক্ত": 9294,
      "মুছ": 9295,
      "য়েলের": 9296,
      "মাসা": 9297,
      "খোর": 9298,
      "রীতিমতো": 9299,
      "আভাস": 9300,
      "দুর্দান্ত": 9301,
      "গেটের": 9302,
      "১৮৯": 9303,
      "জাগ্রত": 9304,
      "রকমে": 9305,
      "চাক": 9306,
      "ডাক্তারের": 9307,
      "উপরি": 9308,
      "সংযোজন": 9309,
      "প্রতিবছর": 9310,
      "বাঁশ": 9311,
      "ক্লাবে": 9312,
      "বিশ্বকাপের": 9313,
      "কতার": 9314,
      "০০৬": 9315,
      "োধে": 9316,
      "পাইন": 9317,
      "রেট": 9318,
      "ফাঁকে": 9319,
      "বিকার": 9320,
      "পুর্": 9321,
      "আবির্ভাব": 9322,
      "পুষ্প": 9323,
      "ছুটো": 9324,
      "গণনা": 9325,
      "আলেক": 9326,
      "নিয়মের": 9327,
      "প্লেন": 9328,
      "বার্সেলো": 9329,
      "তরী": 9330,
      "ডেপুটি": 9331,
      "নড়ে": 9332,
      "এঁতিহাসিক": 9333,
      "টাওয়ার": 9334,
      "শিম": 9335,
      "মুফ": 9336,
      "পারলো": 9337,
      "কন্যার": 9338,
      "মদীনার": 9339,
      "প্রাচ্য": 9340,
      "অনুধাবন": 9341,
      "পেঁয়া": 9342,
      "সংগঠিত": 9343,
      "জবান": 9344,
      "ভালে": 9345,
      "হামিদ": 9346,
      "ঊর্ধ্ব": 9347,
      "সিপি": 9348,
      "লন্ডন": 9349,
      "দরুন": 9350,
      "টিনের": 9351,
      "বারই": 9352,
      "উপপরিদর্শক": 9353,
      "দিল্লি": 9354,
      "করাম": 9355,
      "শুভ্র": 9356,
      "চাঁদা": 9357,
      "রদ": 9358,
      "বিমানবন্দ": 9359,
      "সিজদা": 9360,
      "ঝাপ": 9361,
      "মাংসা": 9362,
      "রক্তে": 9363,
      "শিরোনাম": 9364,
      "স্মারক": 9365,
      "০১০০": 9366,
      "ওবায়": 9367,
      "মানেই": 9368,
      "লায়মান": 9369,
      "গদ": 9370,
      "বিষ্": 9371,
      "উদ্যা": 9372,
      "০৮৪": 9373,
      "হারায়": 9374,
      "রুমের": 9375,
      "হায়ে": 9376,
      "পদ্ম": 9377,
      "প্লেট": 9378,
      "বৈষম্য": 9379,
      "টলে": 9380,
      "নির্মম": 9381,
      "ঝাঁপিয়ে": 9382,
      "কল্": 9383,
      "শশা": 9384,
      "চেয়েছেন": 9385,
      "ঘটনাটা": 9386,
      "দাড়াল": 9387,
      "বিস্ময়কর": 9388,
      "কাঁরয়া": 9389,
      "মূল্যায়ন": 9390,
      "ইতিপূর্বে": 9391,
      "কিড": 9392,
      "ব্দের": 9393,
      "কুরাইশ": 9394,
      "২০০৪": 9395,
      "অর্থবছরের": 9396,
      "বিরল": 9397,
      "আয়োজনে": 9398,
      "ইলিয়া": 9399,
      "ান্ট": 9400,
      "যেতো": 9401,
      "মুতা": 9402,
      "সাজে": 9403,
      "অন্তঃ": 9404,
      "ভাবলাম": 9405,
      "ব্যবহারে": 9406,
      "অধ্যায়ে": 9407,
      "৮৪০": 9408,
      "গুহা": 9409,
      "এমনিতেই": 9410,
      "ধনসম্পদ": 9411,
      "লঞ্চ": 9412,
      "উল্টে": 9413,
      "আইস": 9414,
      "স্টেশনের": 9415,
      "তাদেরই": 9416,
      "পূজার": 9417,
      "ডিরে": 9418,
      "পদক": 9419,
      "মহাশয়": 9420,
      "আশরাফ": 9421,
      "একরকম": 9422,
      "ইফা": 9423,
      "পোয়ার": 9424,
      "তাহের": 9425,
      "পরিসংখ্যান": 9426,
      "তীকে": 9427,
      "৮০১": 9428,
      "সামঞ্জ": 9429,
      "শাশু": 9430,
      "টেডের": 9431,
      "স্কে": 9432,
      "চালানোর": 9433,
      "জনসাধারণের": 9434,
      "ষ্ঠিত": 9435,
      "কানুন": 9436,
      "প্রেমি": 9437,
      "বন্য": 9438,
      "ইলেকট্র": 9439,
      "ডল": 9440,
      "সেবক": 9441,
      "একপাশে": 9442,
      "ঘটি": 9443,
      "সন্তানকে": 9444,
      "প্রবী": 9445,
      "জিম": 9446,
      "অন্ধকারের": 9447,
      "ণ্ন": 9448,
      "সমুদ্রে": 9449,
      "দুনিয়াতে": 9450,
      "পরপরই": 9451,
      "মনু": 9452,
      "হঃ": 9453,
      "লোপ": 9454,
      "সাইড": 9455,
      "ভবিষ্যতের": 9456,
      "ধাওয়া": 9457,
      "বিশেষে": 9458,
      "অঙ্ক": 9459,
      "বন্দো": 9460,
      "লেজ": 9461,
      "কিছুক্ষণের": 9462,
      "প্রয়াস": 9463,
      "ওয়াক্ত": 9464,
      "জানলা": 9465,
      "ওয়াট": 9466,
      "বিশ্বাসঘাত": 9467,
      "সেফ": 9468,
      "বৈদ্য": 9469,
      "মানবতা": 9470,
      "স্থানান্তর": 9471,
      "সুফিয়ান": 9472,
      "আবদুস": 9473,
      "আতে": 9474,
      "গুছিয়ে": 9475,
      "দেশগুলোর": 9476,
      "পালাতে": 9477,
      "আন্দাজ": 9478,
      "ফিরা": 9479,
      "প্রার": 9480,
      "আজিজ": 9481,
      "দাঁত": 9482,
      "শিবিরের": 9483,
      "খনন": 9484,
      "হুরাই": 9485,
      "রবার্ট": 9486,
      "পাঁচজন": 9487,
      "খেদ": 9488,
      "আঠার": 9489,
      "১৬৪": 9490,
      "ঙ্গো": 9491,
      "শিশি": 9492,
      "খানিকক্ষণ": 9493,
      "সুড়": 9494,
      "কারীকে": 9495,
      "নামাযে": 9496,
      "লাগাতে": 9497,
      "জনীন": 9498,
      "ল্লাহ্": 9499,
      "বন্ধুরা": 9500,
      "ষ্টব্য": 9501,
      "এদেশে": 9502,
      "ডাকতে": 9503,
      "আবাসিক": 9504,
      "অমান্য": 9505,
      "ফেব্রুয়ার": 9506,
      "উগ্র": 9507,
      "পাণ্ড": 9508,
      "যেটি": 9509,
      "্বস্ত": 9510,
      "ভোজন": 9511,
      "ষধ": 9512,
      "কড়ে": 9513,
      "উম্মে": 9514,
      "তাগি": 9515,
      "হইলেও": 9516,
      "বহর": 9517,
      "আর্তনাদ": 9518,
      "ইস্ট": 9519,
      "ভিনি": 9520,
      "কাউন্ট": 9521,
      "মান্নান": 9522,
      "ডিএসই": 9523,
      "নামার": 9524,
      "বুঝানো": 9525,
      "প্যান্ট": 9526,
      "পুরানো": 9527,
      "ভেবেছিলাম": 9528,
      "অতিশয়": 9529,
      "জয়ে": 9530,
      "বিনে": 9531,
      "আলবানী": 9532,
      "ব্যাংকে": 9533,
      "নাসি": 9534,
      "খাইয়ে": 9535,
      "কশ": 9536,
      "নড়া": 9537,
      "করাকে": 9538,
      "পোল": 9539,
      "কোনা": 9540,
      "কীর্তি": 9541,
      "চশমা": 9542,
      "অবতার": 9543,
      "চকি": 9544,
      "আলাইহিস": 9545,
      "মুশফিক": 9546,
      "কাধ": 9547,
      "মুঠোফোনে": 9548,
      "লিটন": 9549,
      "ম্পা": 9550,
      "শীদ": 9551,
      "জানিস": 9552,
      "বাদীদের": 9553,
      "আধার": 9554,
      "জাদা": 9555,
      "তরফ": 9556,
      "দখলে": 9557,
      "ধোয়া": 9558,
      "বিপ্লবের": 9559,
      "৩য়": 9560,
      "ওয়ার্ডের": 9561,
      "নেতিবাচক": 9562,
      "খ্রিস্ট": 9563,
      "চামড়ার": 9564,
      "গ্লো": 9565,
      "বিছানার": 9566,
      "যাচ্ছিলেন": 9567,
      "গুটিয়ে": 9568,
      "গ্য": 9569,
      "উষ্ণ": 9570,
      "সঞ্চার": 9571,
      "জানিতে": 9572,
      "তৃতীয়া": 9573,
      "শুন্য": 9574,
      "জুটি": 9575,
      "বাহ্যিক": 9576,
      "তাকেও": 9577,
      "ঢোকার": 9578,
      "দিবসের": 9579,
      "কুতু": 9580,
      "লাদ": 9581,
      "সিটির": 9582,
      "ইন্তে": 9583,
      "সংঘাত": 9584,
      "চাইছেন": 9585,
      "এখানেও": 9586,
      "ধর্ষণের": 9587,
      "ক্যাম্পে": 9588,
      "পলাত": 9589,
      "চাকরির": 9590,
      "মাধ্যমেই": 9591,
      "সম্পূর্ণরূপে": 9592,
      "রাণী": 9593,
      "যীশু": 9594,
      "মিশিয়ে": 9595,
      "অস্তিত": 9596,
      "ঘূর্ণ": 9597,
      "দ্বিগুণ": 9598,
      "তত্ত্বাবধায়ক": 9599,
      "ফ্রান্সের": 9600,
      "চৈতন্য": 9601,
      "পিস": 9602,
      "ফাকে": 9603,
      "স্কের": 9604,
      "তেরো": 9605,
      "জুতা": 9606,
      "শুভেচ্ছা": 9607,
      "জান্": 9608,
      "ধোঁয়া": 9609,
      "দেখানোর": 9610,
      "তথ্যের": 9611,
      "পবিত্রতা": 9612,
      "য়ানের": 9613,
      "কোর্টে": 9614,
      "গড়ি": 9615,
      "০১৪": 9616,
      "মাধ্যমের": 9617,
      "৬৮০": 9618,
      "চিন্তাভাবনা": 9619,
      "এ্র": 9620,
      "পড়েনি": 9621,
      "কাকাবাবু": 9622,
      "ফিসফিস": 9623,
      "ফেন": 9624,
      "পোর": 9625,
      "জ্ঞার": 9626,
      "রোমা": 9627,
      "ট্র্যা": 9628,
      "পয়েন্টে": 9629,
      "জবর": 9630,
      "বেঙ্গল": 9631,
      "হিমা": 9632,
      "ডটকমকে": 9633,
      "ঘাটের": 9634,
      "বিজ্ঞপ্তিতে": 9635,
      "ডব্লিউ": 9636,
[...]
